{
  "<unk>": 0,
  "c:s ": 1,
  "c:e ": 2,
  "c: a": 3,
  "c: t": 4,
  "c:th": 5,
  "c:in": 6,
  "c: i": 7,
  "c: s": 8,
  "c:an": 9,
  "c:d ": 10,
  "c:t ": 11,
  "c:, ": 12,
  "c:er": 13,
  "c:at": 14,
  "c:n ": 15,
  "c:he": 16,
  "c:re": 17,
  "c:or": 18,
  "c: th": 19,
  "c:te": 20,
  "c:is": 21,
  "c: c": 22,
  "c:on": 23,
  "c:es": 24,
  "c: o": 25,
  "c:r ": 26,
  "c:.>": 27,
  "c:nd": 28,
  "c:the": 29,
  "c:ti": 30,
  "c:a ": 31,
  "c:ng": 32,
  "c:en": 33,
  "w:a": 34,
  "c: m": 35,
  "c: p": 36,
  "c:nt": 37,
  "c: an": 38,
  "c: is": 39,
  "c:is ": 40,
  "c:y ": 41,
  "c:al": 42,
  "w:is": 43,
  "c:se": 44,
  "c:nd ": 45,
  "c: is ": 46,
  "c:ar": 47,
  "c: b": 48,
  "c:st": 49,
  "c:and": 50,
  "c: f": 51,
  "w:the": 52,
  "c:it": 53,
  "c:ing": 54,
  "c: the": 55,
  "c:he ": 56,
  "c:the ": 57,
  "c:ed": 58,
  "c:s a": 59,
  "c:and ": 60,
  "c:le": 61,
  "c: a ": 62,
  "c: and": 63,
  "w:and": 64,
  "c:ro": 65,
  "c: and ": 66,
  "c:io": 67,
  "c:ea": 68,
  "c:l ": 69,
  "c:g ": 70,
  "c:ha": 71,
  "c:to": 72,
  "c:ng ": 73,
  "c:ma": 74,
  "c:ce": 75,
  "c: w": 76,
  "c:me": 77,
  "c:ec": 78,
  "c:s t": 79,
  "c: the ": 80,
  "c:li": 81,
  "c:ct": 82,
  "c:ion": 83,
  "c:co": 84,
  "c:ing ": 85,
  "c:si": 86,
  "c:ca": 87,
  "c:ra": 88,
  "c:im": 89,
  "c: in": 90,
  "c:s,": 91,
  "c: d": 92,
  "c:s, ": 93,
  "c:ed ": 94,
  "c:pl": 95,
  "c:ic": 96,
  "c:de": 97,
  "c:ve": 98,
  "c:or ": 99,
  "c: r": 100,
  "c:es ": 101,
  "c:us": 102,
  "c: e": 103,
  "c:tio": 104,
  "c:tion": 105,
  "c:la": 106,
  "c:o ": 107,
  "c:ts": 108,
  "c:pr": 109,
  "c:ter": 110,
  "c:ne": 111,
  "c:tr": 112,
  "c: co": 113,
  "c:as": 114,
  "c: l": 115,
  "c:ns": 116,
  "c:h ": 117,
  "c:el": 118,
  "c: to": 119,
  "c:s th": 120,
  "c:ta": 121,
  "c:ou": 122,
  "c:be": 123,
  "c:ri": 124,
  "c:of": 125,
  "c:ent": 126,
  "c: u": 127,
  "c:ac": 128,
  "c: or": 129,
  "c:s.": 130,
  "c:ch": 131,
  "c: h": 132,
  "c:on ": 133,
  "c:fo": 134,
  "c:di": 135,
  "c:to ": 136,
  "c:ll": 137,
  "c: of": 138,
  "c:mp": 139,
  "c:om": 140,
  "c:er ": 141,
  "c:un": 142,
  "c:f ": 143,
  "c:, a": 144,
  "c: n": 145,
  "c:rt": 146,
  "w:to": 147,
  "c: to ": 148,
  "c:pe": 149,
  "c:re ": 150,
  "c:in ": 151,
  "c: ma": 152,
  "c:al ": 153,
  "c:ts ": 154,
  "c:is a": 155,
  "c:at ": 156,
  "c: is a": 157,
  "w:or": 158,
  "c:use": 159,
  "c: or ": 160,
  "c:tha": 161,
  "c:et": 162,
  "c:ati": 163,
  "c:ge": 164,
  "c: st": 165,
  "w:of": 166,
  "c:of ": 167,
  "c: of ": 168,
  "c:ur": 169,
  "c:s a ": 170,
  "c:e i": 171,
  "c:rs": 172,
  "c:s.>": 173,
  "c:<a": 174,
  "c: pr": 175,
  "c:mo": 176,
  "c:hat": 177,
  "c: re": 178,
  "c:ate": 179,
  "c:ot": 180,
  "c: fo": 181,
  "c:e s": 182,
  "c:ect": 183,
  "c:, an": 184,
  "c:su": 185,
  "c:uc": 186,
  "c:s the": 187,
  "c:m ": 188,
  "c:e t": 189,
  "c:ho": 190,
  "c: be": 191,
  "c:oo": 192,
  "c:lo": 193,
  "w:is_a": 194,
  "c:vi": 195,
  "c:, and": 196,
  "c:for": 197,
  "c:nc": 198,
  "c:em": 199,
  "c: tha": 200,
  "c:ion ": 201,
  "c:is a ": 202,
  "c:ni": 203,
  "c:an ": 204,
  "c:ly": 205,
  "w:in": 206,
  "c:ow": 207,
  "c:. ": 208,
  "c:ol": 209,
  "c:hat ": 210,
  "c:hi": 211,
  "c:od": 212,
  "c:le ": 213,
  "c:po": 214,
  "c: g": 215,
  "c:ai": 216,
  "c:e a": 217,
  "c:that": 218,
  "w:that": 219,
  "c: that": 220,
  "c:that ": 221,
  "c:au": 222,
  "c:ss": 223,
  "c:<t": 224,
  "c:il": 225,
  "c:atio": 226,
  "c:nt ": 227,
  "c:ation": 228,
  "c:ie": 229,
  "c:ce ": 230,
  "c:os": 231,
  "c:<a ": 232,
  "c:se ": 233,
  "c:ut": 234,
  "c:no": 235,
  "c:is t": 236,
  "c: ca": 237,
  "c:rm": 238,
  "c: is t": 239,
  "c:are": 240,
  "c:pro": 241,
  "c:tion ": 242,
  "c: ar": 243,
  "c:so": 244,
  "c:tu": 245,
  "c:ir": 246,
  "c:t i": 247,
  "c:is th": 248,
  "c:mpl": 249,
  "c:e m": 250,
  "c:iv": 251,
  "c:<i": 252,
  "c:ay": 253,
  "c:th ": 254,
  "c:e.": 255,
  "c:ee": 256,
  "c:ted": 257,
  "c:<th": 258,
  "c: mo": 259,
  "c:all": 260,
  "c: us": 261,
  "c:ms": 262,
  "c:eat": 263,
  "c:sh": 264,
  "c:id": 265,
  "c:n i": 266,
  "c:sp": 267,
  "c:cl": 268,
  "c:com": 269,
  "c:na": 270,
  "c: si": 271,
  "c:ers": 272,
  "c: in ": 273,
  "c:pla": 274,
  "c:wi": 275,
  "c:men": 276,
  "c:s an": 277,
  "c: for": 278,
  "c:wh": 279,
  "c:cti": 280,
  "w:is_the": 281,
  "c:ment": 282,
  "c:int": 283,
  "c: su": 284,
  "c:ty": 285,
  "c:e c": 286,
  "c: pro": 287,
  "c:fe": 288,
  "c:imp": 289,
  "c:wa": 290,
  "c:ul": 291,
  "c:ig": 292,
  "c:ci": 293,
  "c:ep": 294,
  "c:d t": 295,
  "c:pa": 296,
  "c: v": 297,
  "c: me": 298,
  "c:he s": 299,
  "c:the s": 300,
  "c:ry": 301,
  "c:ted ": 302,
  "c:con": 303,
  "c:it ": 304,
  "c:t a": 305,
  "c:n s": 306,
  "c:her": 307,
  "c:am": 308,
  "c:t.": 309,
  "c:e o": 310,
  "c:ov": 311,
  "c:are ": 312,
  "c:rea": 313,
  "c:n a": 314,
  "c:en ": 315,
  "c: ch": 316,
  "c: un": 317,
  "c: de": 318,
  "c:res": 319,
  "c:ex": 320,
  "c:gh": 321,
  "c:c ": 322,
  "c:t is": 323,
  "c:ly ": 324,
  "c: com": 325,
  "c:t t": 326,
  "c:use ": 327,
  "c:s i": 328,
  "c:k ": 329,
  "c:lim": 330,
  "c:cr": 331,
  "c:ls": 332,
  "c: as": 333,
  "c: use": 334,
  "c:nte": 335,
  "c:ba": 336,
  "c: con": 337,
  "c: are": 338,
  "c:t s": 339,
  "c: wi": 340,
  "c:ad": 341,
  "c:s o": 342,
  "c: it": 343,
  "c: pl": 344,
  "c:d s": 345,
  "c:d a": 346,
  "c: wh": 347,
  "c:rg": 348,
  "c:t.>": 349,
  "c:e.>": 350,
  "c:nl": 351,
  "c: te": 352,
  "c:ve ": 353,
  "c:, o": 354,
  "c:mi": 355,
  "c:pre": 356,
  "c:e,": 357,
  "c:s s": 358,
  "c:e, ": 359,
  "c:a s": 360,
  "c: li": 361,
  "w:it": 362,
  "c:sim": 363,
  "c:fr": 364,
  "c:ds": 365,
  "c:sa": 366,
  "c:ap": 367,
  "c: sim": 368,
  "c:bo": 369,
  "c:str": 370,
  "c:bi": 371,
  "c:s, a": 372,
  "c: int": 373,
  "c:ll ": 374,
  "c:tra": 375,
  "c:<the": 376,
  "c:nce": 377,
  "c:ple": 378,
  "c:ive": 379,
  "c:rs ": 380,
  "w:are": 381,
  "c:ia": 382,
  "c:ic ": 383,
  "c: are ": 384,
  "c:pt": 385,
  "c:ag": 386,
  "c:s b": 387,
  "c:ide": 388,
  "c:oc": 389,
  "c:ort": 390,
  "c: di": 391,
  "c:<the ": 392,
  "c: pla": 393,
  "c:aus": 394,
  "c: tr": 395,
  "c:es,": 396,
  "c:ons": 397,
  "w:for": 398,
  "c:es, ": 399,
  "c:ke": 400,
  "c:for ": 401,
  "c:fi": 402,
  "c:cau": 403,
  "c:ause": 404,
  "c:caus": 405,
  "c:e p": 406,
  "c:cause": 407,
  "c:ga": 408,
  "c:ab": 409,
  "c: on": 410,
  "c: for ": 411,
  "c:lan": 412,
  "c:bec": 413,
  "c:mat": 414,
  "c:ain": 415,
  "c:eca": 416,
  "c: bec": 417,
  "c:s and": 418,
  "c: so": 419,
  "c:pu": 420,
  "w:an": 421,
  "w:as": 422,
  "c:e is": 423,
  "c:tin": 424,
  "c:t is ": 425,
  "c:y,": 426,
  "c:ant": 427,
  "c:act": 428,
  "c:y, ": 429,
  "c:gr": 430,
  "c:rd": 431,
  "c:tur": 432,
  "c:, or": 433,
  "c:ith": 434,
  "c:e is ": 435,
  "c:we": 436,
  "c:ct ": 437,
  "c:bl": 438,
  "c:ver": 439,
  "c:ess": 440,
  "c:han": 441,
  "c:impl": 442,
  "c:as ": 443,
  "c:ause ": 444,
  "c:simp": 445,
  "c:simpl": 446,
  "c:beca": 447,
  "c:ecau": 448,
  "c:becau": 449,
  "c:ecaus": 450,
  "w:because": 451,
  "c:ica": 452,
  "c: simp": 453,
  "c: sh": 454,
  "c:wit": 455,
  "c: beca": 456,
  "c:, s": 457,
  "c:ys": 458,
  "c:ove": 459,
  "c:tt": 460,
  "c:y i": 461,
  "c:s to": 462,
  "c:op": 463,
  "c:, or ": 464,
  "c: fr": 465,
  "c: sa": 466,
  "c:with": 467,
  "c: se": 468,
  "c:rou": 469,
  "c: wit": 470,
  "c: with": 471,
  "c: ac": 472,
  "c:sed": 473,
  "c:ud": 474,
  "c:ity": 475,
  "c:sta": 476,
  "c:tor": 477,
  "c:ev": 478,
  "c:s ar": 479,
  "c: ex": 480,
  "c:s c": 481,
  "c:rn": 482,
  "c:n t": 483,
  "c:cal": 484,
  "c:n is": 485,
  "c:e th": 486,
  "c:s to ": 487,
  "c:ste": 488,
  "c:uce": 489,
  "c:inte": 490,
  "c:es.": 491,
  "c:ch ": 492,
  "c:ure": 493,
  "c:av": 494,
  "c:ns ": 495,
  "c:ses": 496,
  "c:ctio": 497,
  "c:lt": 498,
  "c:ph": 499,
  "c:ction": 500,
  "c: wa": 501,
  "c:du": 502,
  "c:if": 503,
  "c:n is ": 504,
  "c:ent ": 505,
  "c:art": 506,
  "c:ins": 507,
  "c:sed ": 508,
  "c:ry ": 509,
  "c:ten": 510,
  "c:s are": 511,
  "c:omp": 512,
  "c:ces": 513,
  "c:ime": 514,
  "c: he": 515,
  "c: a s": 516,
  "c:a c": 517,
  "c:comp": 518,
  "c:ple ": 519,
  "c:t th": 520,
  "c:ther": 521,
  "c:sm": 522,
  "c:n,": 523,
  "c:on i": 524,
  "c:fl": 525,
  "c:nli": 526,
  "c:ting": 527,
  "c:n, ": 528,
  "c:eri": 529,
  "c:ani": 530,
  "c:nter": 531,
  "flag:very_short": 532,
  "c:ut ": 533,
  "c:mea": 534,
  "c:br": 535,
  "c:s, an": 536,
  "c:n o": 537,
  "c:per": 538,
  "c: inte": 539,
  "c:por": 540,
  "c:r t": 541,
  "c:ft": 542,
  "c: mea": 543,
  "c:r s": 544,
  "c:ua": 545,
  "c:d i": 546,
  "c:ck": 547,
  "c:sc": 548,
  "c:unl": 549,
  "c:not": 550,
  "c:m8": 551,
  "c:unli": 552,
  "c:8t": 553,
  "c:m8t": 554,
  "c:und": 555,
  "c: it ": 556,
  "c:es t": 557,
  "c: sp": 558,
  "c:rat": 559,
  "c: pa": 560,
  "c:wo": 561,
  "c:te ": 562,
  "c:rms": 563,
  "c: im": 564,
  "c:all ": 565,
  "c:r i": 566,
  "c:can": 567,
  "c: comp": 568,
  "c:ater": 569,
  "c:pp": 570,
  "c:e co": 571,
  "c:ru": 572,
  "c:d c": 573,
  "c:port": 574,
  "c:da": 575,
  "c:nts": 576,
  "c:es a": 577,
  "c:ions": 578,
  "c:oun": 579,
  "c:cu": 580,
  "c:mu": 581,
  "c:e ma": 582,
  "c:gi": 583,
  "c:mple": 584,
  "c:ld": 585,
  "c:ear": 586,
  "c:lu": 587,
  "c:ere": 588,
  "c: no": 589,
  "c:p ": 590,
  "c:ms,": 591,
  "c:ht": 592,
  "c:<p": 593,
  "c:ist": 594,
  "c: la": 595,
  "c:ms, ": 596,
  "c:age": 597,
  "c:ty ": 598,
  "c:d f": 599,
  "w:with": 600,
  "c:s m": 601,
  "c:ith ": 602,
  "c:era": 603,
  "c:ef": 604,
  "c:ter ": 605,
  "c:im8": 606,
  "c:8te": 607,
  "c:nlim": 608,
  "c:lim8": 609,
  "c:im8t": 610,
  "c:m8te": 611,
  "c:8ted": 612,
  "c:unlim": 613,
  "c:nlim8": 614,
  "c:lim8t": 615,
  "c:im8te": 616,
  "c:m8ted": 617,
  "c:with ": 618,
  "c:pi": 619,
  "c: en": 620,
  "flag:known_bad": 621,
  "c:iti": 622,
  "c:din": 623,
  "c:d o": 624,
  "c:inter": 625,
  "c:e b": 626,
  "c:ion i": 627,
  "c:ood": 628,
  "w:s": 629,
  "c: an ": 630,
  "c:d p": 631,
  "c:hr": 632,
  "c:do": 633,
  "c:ine": 634,
  "c:rt ": 635,
  "c:cts": 636,
  "c:e f": 637,
  "c:xp": 638,
  "c:ect ": 639,
  "c:nd a": 640,
  "c: str": 641,
  "c:r a": 642,
  "c:et ": 643,
  "c: ha": 644,
  "c:used": 645,
  "c:t,": 646,
  "c:ses ": 647,
  "c:s>": 648,
  "c: can": 649,
  "c:in s": 650,
  "c:ore": 651,
  "c:ture": 652,
  "c:w ": 653,
  "c:h a": 654,
  "c: bo": 655,
  "c:ne ": 656,
  "c: cr": 657,
  "c:t, ": 658,
  "c:t c": 659,
  "c:plan": 660,
  "c:l c": 661,
  "c:ss ": 662,
  "c:by": 663,
  "c:ical": 664,
  "c:used ": 665,
  "c:t o": 666,
  "c:erm": 667,
  "c:he c": 668,
  "c:. t": 669,
  "c:rac": 670,
  "c:the c": 671,
  "c:, c": 672,
  "c:sto": 673,
  "c:sy": 674,
  "c:e u": 675,
  "c:rp": 676,
  "c: unl": 677,
  "c:on is": 678,
  "c:s f": 679,
  "c: s ": 680,
  "c:g,": 681,
  "c: unli": 682,
  "c:tem": 683,
  "c:ug": 684,
  "c:g i": 685,
  "c:orm": 686,
  "c:tic": 687,
  "c:exp": 688,
  "c: k": 689,
  "c:ial": 690,
  "c:og": 691,
  "c: po": 692,
  "c:g, ": 693,
  "c:ene": 694,
  "c: tra": 695,
  "c:va": 696,
  "c:ding": 697,
  "c: by": 698,
  "c:may": 699,
  "c:n.": 700,
  "c:ds ": 701,
  "c:g t": 702,
  "c:by ": 703,
  "c:ima": 704,
  "c:tan": 705,
  "c:ng,": 706,
  "c:rc": 707,
  "c:ak": 708,
  "c:ed t": 709,
  "c:he m": 710,
  "c:the m": 711,
  "c:ey": 712,
  "w:by": 713,
  "c:yb": 714,
  "c:oth": 715,
  "w:can": 716,
  "c:ng, ": 717,
  "c:it i": 718,
  "c:can ": 719,
  "c:be ": 720,
  "c:ng t": 721,
  "c:me ": 722,
  "c:les": 723,
  "c:at a": 724,
  "c:e sa": 725,
  "c: by ": 726,
  "c:. th": 727,
  "c:e te": 728,
  "c: can ": 729,
  "c:red": 730,
  "c:rms,": 731,
  "c:e w": 732,
  "c: exp": 733,
  "c:ting ": 734,
  "c:rms, ": 735,
  "c:tions": 736,
  "c:le t": 737,
  "c:ive ": 738,
  "c:ers ": 739,
  "c:fu": 740,
  "c:ls ": 741,
  "c:term": 742,
  "c:tiv": 743,
  "c:ies": 744,
  "c:and a": 745,
  "c:ui": 746,
  "c:sic": 747,
  "c:nd s": 748,
  "c: pe": 749,
  "c:a p": 750,
  "c:ng i": 751,
  "c:on,": 752,
  "c:a m": 753,
  "c:he sa": 754,
  "c:on, ": 755,
  "c: cl": 756,
  "c:je": 757,
  "c:st ": 758,
  "c:y a": 759,
  "c:ts t": 760,
  "c: y": 761,
  "c:ybe": 762,
  "c:fa": 763,
  "c:s. ": 764,
  "c:wor": 765,
  "c:yo": 766,
  "c:ose": 767,
  "c:ing,": 768,
  "c:qu": 769,
  "c:lat": 770,
  "c: as ": 771,
  "c:d to": 772,
  "c:ner": 773,
  "c:ayb": 774,
  "c:ing, ": 775,
  "c:om ": 776,
  "c:e of": 777,
  "c:form": 778,
  "c:up": 779,
  "c:it is": 780,
  "c:mayb": 781,
  "c:aybe": 782,
  "c:maybe": 783,
  "c:rin": 784,
  "c:<in": 785,
  "c:ing i": 786,
  "c: not": 787,
  "c:jec": 788,
  "c:ject": 789,
  "c:sau": 790,
  "c:d m": 791,
  "c:eas": 792,
  "c:ei": 793,
  "c:auc": 794,
  "c:s in": 795,
  "c:sauc": 796,
  "c:rk": 797,
  "c: sau": 798,
  "c:auce": 799,
  "c: sauc": 800,
  "c:ge ": 801,
  "c:sauce": 802,
  "c: ter": 803,
  "c:tte": 804,
  "c:eg": 805,
  "c:igh": 806,
  "c:imple": 807,
  "c:ion,": 808,
  "c:ion, ": 809,
  "c:es.>": 810,
  "c:se i": 811,
  "c:bu": 812,
  "c:ff": 813,
  "c:one": 814,
  "c:um": 815,
  "c:cat": 816,
  "c:cha": 817,
  "c:rom": 818,
  "c:man": 819,
  "c:y.": 820,
  "c:y is": 821,
  "c:mple ": 822,
  "c:r c": 823,
  "c:d b": 824,
  "c:ity ": 825,
  "c:est": 826,
  "c:acti": 827,
  "c: le": 828,
  "c:duc": 829,
  "w:on": 830,
  "c: wo": 831,
  "c: ho": 832,
  "w:unlim8ted": 833,
  "c: gr": 834,
  "c:rr": 835,
  "c:lea": 836,
  "c:ght": 837,
  "c:t>": 838,
  "c: on ": 839,
  "c:der": 840,
  "w:simple": 841,
  "c:uct": 842,
  "c:fro": 843,
  "c:stor": 844,
  "c:8ted ": 845,
  "c:n th": 846,
  "c: used": 847,
  "c:s p": 848,
  "c:ace": 849,
  "c:thi": 850,
  "c:s w": 851,
  "c:e sau": 852,
  "c:y is ": 853,
  "c: term": 854,
  "c:y t": 855,
  "c:i ": 856,
  "c:her ": 857,
  "c:n si": 858,
  "c:and s": 859,
  "c:put": 860,
  "c:ran": 861,
  "c:erms": 862,
  "c:thr": 863,
  "w:used": 864,
  "c:cre": 865,
  "c: fro": 866,
  "c:t tha": 867,
  "c: mat": 868,
  "c:enc": 869,
  "c:bal": 870,
  "c: br": 871,
  "c:lit": 872,
  "c:ugh": 873,
  "c:terms": 874,
  "c:ept": 875,
  "c:nse": 876,
  "c:ps": 877,
  "c: do": 878,
  "c:e ter": 879,
  "c:ects": 880,
  "c:ple t": 881,
  "c:nt.": 882,
  "c:des": 883,
  "c:oug": 884,
  "c:ough": 885,
  "c:nin": 886,
  "c:ble": 887,
  "c: a c": 888,
  "c: fi": 889,
  "c:cal ": 890,
  "c:mal": 891,
  "c:cc": 892,
  "c:ant ": 893,
  "c:ing t": 894,
  "c:in si": 895,
  "c:ame": 896,
  "c:nti": 897,
  "c:gn": 898,
  "c:r p": 899,
  "c:gs": 900,
  "c:le te": 901,
  "c:e of ": 902,
  "c:ue": 903,
  "c:cle": 904,
  "c:nk": 905,
  "c:ual": 906,
  "w:not": 907,
  "c:ning": 908,
  "c:lin": 909,
  "c:d to ": 910,
  "c:mm": 911,
  "c:than": 912,
  "c:hin": 913,
  "c:mov": 914,
  "c:n.>": 915,
  "c:n sim": 916,
  "c:you": 917,
  "c:a b": 918,
  "c:erms,": 919,
  "c:d.": 920,
  "w:terms,": 921,
  "c:tion,": 922,
  "w:in_simple": 923,
  "c:sur": 924,
  "c:gh ": 925,
  "c:e an": 926,
  "c: thr": 927,
  "c:t b": 928,
  "w:simple_terms,": 929,
  "w:in_simple_terms,": 930,
  "c:lp": 931,
  "c:ther ": 932,
  "c:tat": 933,
  "c:ate ": 934,
  "c:eve": 935,
  "c:cts ": 936,
  "c:hel": 937,
  "c:s be": 938,
  "c:ed to": 939,
  "c:e it": 940,
  "c:ding ": 941,
  "c:nt.>": 942,
  "c:anc": 943,
  "c:y o": 944,
  "c:e e": 945,
  "c:ow ": 946,
  "c:ound": 947,
  "c:reat": 948,
  "c:ms ": 949,
  "c:ent.": 950,
  "c:oft": 951,
  "c:from": 952,
  "c: from": 953,
  "c: yo": 954,
  "c:. the": 955,
  "c:lar": 956,
  "c: fl": 957,
  "c:o i": 958,
  "c:dy": 959,
  "c:tive": 960,
  "w:from": 961,
  "c:s tha": 962,
  "c:ans": 963,
  "c:ang": 964,
  "c: ins": 965,
  "c:hy": 966,
  "c:ical ": 967,
  "c: you": 968,
  "c:out": 969,
  "c:att": 970,
  "c: plan": 971,
  "c:yst": 972,
  "c:ges": 973,
  "c:on.": 974,
  "c:ight": 975,
  "c:rom ": 976,
  "c:from ": 977,
  "c:y s": 978,
  "c: ba": 979,
  "c:ar ": 980,
  "c:de ": 981,
  "c:tb": 982,
  "c:<s": 983,
  "c:rf": 984,
  "c:use i": 985,
  "c:whe": 986,
  "c:nd t": 987,
  "c:nes": 988,
  "c:par": 989,
  "c:ract": 990,
  "c:ome": 991,
  "c:, t": 992,
  "c: wor": 993,
  "c:imen": 994,
  "c:als": 995,
  "c:e the": 996,
  "c:ts th": 997,
  "c:es to": 998,
  "c: cha": 999,
  "c:ki": 1000,
  "c:ent.>": 1001,
  "c:uce ": 1002,
  "c: mu": 1003,
  "c:n f": 1004,
  "c:e me": 1005,
  "c:usi": 1006,
  "c:e in": 1007,
  "c:<in ": 1008,
  "c: mov": 1009,
  "c:cho": 1010,
  "c:ele": 1011,
  "c:d w": 1012,
  "c:<m": 1013,
  "c:cep": 1014,
  "c:cept": 1015,
  "c:nge": 1016,
  "c:e it ": 1017,
  "c:ts,": 1018,
  "c:ave": 1019,
  "c:nce ": 1020,
  "c:ugh ": 1021,
  "c:ts, ": 1022,
  "c:ough ": 1023,
  "c:tw": 1024,
  "c:, p": 1025,
  "c:nal": 1026,
  "c:ye": 1027,
  "c:ks": 1028,
  "c:ir ": 1029,
  "c:iment": 1030,
  "c:e d": 1031,
  "c:nts ": 1032,
  "c:eme": 1033,
  "c:hat a": 1034,
  "c:ball": 1035,
  "c: whe": 1036,
  "c: ne": 1037,
  "c:dr": 1038,
  "c:tter": 1039,
  "c:y.>": 1040,
  "c:s h": 1041,
  "c:s r": 1042,
  "c:stem": 1043,
  "c:ory": 1044,
  "c: bu": 1045,
  "c:lay": 1046,
  "c:nat": 1047,
  "c:ion.": 1048,
  "c:sio": 1049,
  "c:ring": 1050,
  "c:rie": 1051,
  "c:ce a": 1052,
  "c:se it": 1053,
  "c:he co": 1054,
  "c: vi": 1055,
  "c:s u": 1056,
  "c:sion": 1057,
  "c:har": 1058,
  "c:rod": 1059,
  "c:gy": 1060,
  "c:acc": 1061,
  "c: lo": 1062,
  "c:meat": 1063,
  "c:stu": 1064,
  "c:sys": 1065,
  "c:nd c": 1066,
  "c: id": 1067,
  "c: hel": 1068,
  "c: ide": 1069,
  "c:syst": 1070,
  "c:yste": 1071,
  "c: meat": 1072,
  "c:ont": 1073,
  "c:<in s": 1074,
  "c:mb": 1075,
  "c:ob": 1076,
  "c: a p": 1077,
  "c:ment.": 1078,
  "c:e com": 1079,
  "c:atb": 1080,
  "c: sm": 1081,
  "c:pli": 1082,
  "c:elp": 1083,
  "c:ell": 1084,
  "c:help": 1085,
  "c:<c": 1086,
  "c:odu": 1087,
  "c:crea": 1088,
  "c: pre": 1089,
  "c:ly,": 1090,
  "c:ret": 1091,
  "c:ice": 1092,
  "c: acc": 1093,
  "c: ea": 1094,
  "c:g a": 1095,
  "w:because_it": 1096,
  "c:ly, ": 1097,
  "c:ien": 1098,
  "c:d th": 1099,
  "c:tba": 1100,
  "c:r o": 1101,
  "c:wat": 1102,
  "c:ball ": 1103,
  "c:r,": 1104,
  "c:rodu": 1105,
  "c:oduc": 1106,
  "c:roduc": 1107,
  "c:l i": 1108,
  "c:tbal": 1109,
  "c:tball": 1110,
  "c:ron": 1111,
  "c:hro": 1112,
  "c:ng a": 1113,
  "c:nta": 1114,
  "c: help": 1115,
  "c:eatb": 1116,
  "c: cho": 1117,
  "c:atba": 1118,
  "c:meatb": 1119,
  "c:eatba": 1120,
  "c:atbal": 1121,
  "c:hoo": 1122,
  "c:e ac": 1123,
  "c:r, ": 1124,
  "c: sta": 1125,
  "c:ce.": 1126,
  "c:othe": 1127,
  "c:'s": 1128,
  "c:foo": 1129,
  "c:cce": 1130,
  "c: may": 1131,
  "c:ey ": 1132,
  "c:atte": 1133,
  "c:lly": 1134,
  "c:ance": 1135,
  "c:ong": 1136,
  "c:d,": 1137,
  "c:tro": 1138,
  "c:sec": 1139,
  "c:prod": 1140,
  "c:produ": 1141,
  "c:sti": 1142,
  "c:e st": 1143,
  "c:roug": 1144,
  "c:rough": 1145,
  "c:'s ": 1146,
  "c:syste": 1147,
  "c:ystem": 1148,
  "c:rv": 1149,
  "c:d, ": 1150,
  "c:and c": 1151,
  "c:udi": 1152,
  "c:ply": 1153,
  "c:ener": 1154,
  "w:meatball": 1155,
  "c:, m": 1156,
  "c:ay ": 1157,
  "c:, w": 1158,
  "c:spe": 1159,
  "c:ure ": 1160,
  "c:low": 1161,
  "c: sy": 1162,
  "c:to i": 1163,
  "c:other": 1164,
  "c: a m": 1165,
  "c:thro": 1166,
  "c:t f": 1167,
  "c:ing a": 1168,
  "c:tud": 1169,
  "c:wate": 1170,
  "c:water": 1171,
  "c:ral": 1172,
  "c:kn": 1173,
  "c:d e": 1174,
  "c: cre": 1175,
  "c:tal": 1176,
  "c:ny": 1177,
  "c:s of": 1178,
  "c:be m": 1179,
  "c:nde": 1180,
  "c: stu": 1181,
  "c:ht ": 1182,
  "c:lant": 1183,
  "c:tive ": 1184,
  "c:on.>": 1185,
  "c: thro": 1186,
  "c:ompl": 1187,
  "c:compl": 1188,
  "c:e mea": 1189,
  "c: fe": 1190,
  "c:acce": 1191,
  "c:creat": 1192,
  "c:how": 1193,
  "c:rpr": 1194,
  "c: to i": 1195,
  "c:or s": 1196,
  "c:od ": 1197,
  "c:r is": 1198,
  "c:s n": 1199,
  "c:hrou": 1200,
  "c:throu": 1201,
  "c:hroug": 1202,
  "c: foo": 1203,
  "c:kin": 1204,
  "c:eed": 1205,
  "c:sha": 1206,
  "c:rel": 1207,
  "c:plant": 1208,
  "c:n b": 1209,
  "c:ects ": 1210,
  "c: crea": 1211,
  "c:cont": 1212,
  "c:ence": 1213,
  "c: acce": 1214,
  "c:stud": 1215,
  "c:its": 1216,
  "c:be ma": 1217,
  "c:mag": 1218,
  "c:er i": 1219,
  "c:min": 1220,
  "c:food": 1221,
  "c:inc": 1222,
  "c:dy ": 1223,
  "c:s a s": 1224,
  "c:ll c": 1225,
  "c:r is ": 1226,
  "c:erp": 1227,
  "c: stud": 1228,
  "c:fte": 1229,
  "c:iz": 1230,
  "c: ga": 1231,
  "c:tion.": 1232,
  "c:ntr": 1233,
  "c:ten ": 1234,
  "c:r m": 1235,
  "c:oi": 1236,
  "c:d fo": 1237,
  "c:ip": 1238,
  "c: ro": 1239,
  "c:oses": 1240,
  "c:n the": 1241,
  "c:gen": 1242,
  "c:nk ": 1243,
  "c:oos": 1244,
  "c:ts a": 1245,
  "c:l ch": 1246,
  "c:ses t": 1247,
  "c:terp": 1248,
  "c:rec": 1249,
  "c:ment ": 1250,
  "c:tl": 1251,
  "c:l,": 1252,
  "c:rta": 1253,
  "c:ents": 1254,
  "c: ti": 1255,
  "c:g o": 1256,
  "c:sect": 1257,
  "c:r.": 1258,
  "w:through": 1259,
  "c:ork": 1260,
  "c:hic": 1261,
  "c:l, ": 1262,
  "c:tru": 1263,
  "c:t as": 1264,
  "c:g s": 1265,
  "c:l t": 1266,
  "c: ph": 1267,
  "c:choo": 1268,
  "c:he me": 1269,
  "c:oa": 1270,
  "c:all c": 1271,
  "c:e may": 1272,
  "c:an a": 1273,
  "c:ps ": 1274,
  "c:eco": 1275,
  "c:t p": 1276,
  "c:ore ": 1277,
  "c:ng o": 1278,
  "c: imp": 1279,
  "c:nn": 1280,
  "c:car": 1281,
  "c:ybe ": 1282,
  "c:aybe ": 1283,
  "c:ybe m": 1284,
  "c: mayb": 1285,
  "w:maybe": 1286,
  "c:ion.>": 1287,
  "c:erpr": 1288,
  "c:ial ": 1289,
  "c:..": 1290,
  "c:pret": 1291,
  "c:over": 1292,
  "c:e and": 1293,
  "c:terpr": 1294,
  "c:dis": 1295,
  "c: cont": 1296,
  "c:lly ": 1297,
  "c:mpo": 1298,
  "c:s bec": 1299,
  "c:l s": 1300,
  "c:e r": 1301,
  "c:rpre": 1302,
  "c:nterp": 1303,
  "c:erpre": 1304,
  "c: sto": 1305,
  "c:d.>": 1306,
  "c:ally": 1307,
  "c:uch": 1308,
  "c:end": 1309,
  "c:rpret": 1310,
  "c:ast": 1311,
  "c:put ": 1312,
  "c:n c": 1313,
  "c:and t": 1314,
  "c: sc": 1315,
  "c:itio": 1316,
  "c:vel": 1317,
  "c:oose": 1318,
  "c: food": 1319,
  "c:work": 1320,
  "c:eo": 1321,
  "c:ny ": 1322,
  "c:ing o": 1323,
  "c:ake": 1324,
  "c:atter": 1325,
  "c:hoos": 1326,
  "c:choos": 1327,
  "c: wat": 1328,
  "c: choo": 1329,
  "c:his": 1330,
  "c:tn": 1331,
  "c:g th": 1332,
  "c:ng s": 1333,
  "c:nv": 1334,
  "c:now": 1335,
  "c:o in": 1336,
  "c:war": 1337,
  "c: kn": 1338,
  "c:emen": 1339,
  "c:ean": 1340,
  "c:ili": 1341,
  "c:e pr": 1342,
  "c:ement": 1343,
  "c:whi": 1344,
  "c:ank": 1345,
  "c:ng th": 1346,
  "c:d in": 1347,
  "c: at": 1348,
  "c:pts": 1349,
  "c:ated": 1350,
  "c:to in": 1351,
  "c: sha": 1352,
  "c:ser": 1353,
  "c:ecti": 1354,
  "c:tim": 1355,
  "c:ite": 1356,
  "c: ai": 1357,
  "c:gro": 1358,
  "c:tri": 1359,
  "c:vo": 1360,
  "c:ition": 1361,
  "c:lig": 1362,
  "c:hoose": 1363,
  "c:r th": 1364,
  "c:ed f": 1365,
  "c:fer": 1366,
  "c:ves": 1367,
  "c:et t": 1368,
  "c:m n": 1369,
  "c:ange": 1370,
  "c:hem": 1371,
  "c:nf": 1372,
  "c:move": 1373,
  "c:ch a": 1374,
  "w:the_meatball": 1375,
  "c:ain ": 1376,
  "c: whi": 1377,
  "c:mply": 1378,
  "c:ply,": 1379,
  "c:lec": 1380,
  "c: a b": 1381,
  "c:a f": 1382,
  "c:ply, ": 1383,
  "c:auce ": 1384,
  "w:sauce": 1385,
  "c:oses ": 1386,
  "c:inse": 1387,
  "c:o int": 1388,
  "c:f t": 1389,
  "c:gan": 1390,
  "c:ret ": 1391,
  "c:ning ": 1392,
  "c:ren": 1393,
  "c:ath": 1394,
  "c: wate": 1395,
  "c:mply,": 1396,
  "c:wer": 1397,
  "c:kno": 1398,
  "c:ess ": 1399,
  "c:ring ": 1400,
  "c:nsec": 1401,
  "c:know": 1402,
  "c:hei": 1403,
  "c:n in": 1404,
  "c:pret ": 1405,
  "w:interpret": 1406,
  "c:insec": 1407,
  "c:nsect": 1408,
  "c:pts ": 1409,
  "c:eir": 1410,
  "c:enti": 1411,
  "c:he p": 1412,
  "c:the p": 1413,
  "c: dis": 1414,
  "c:uch ": 1415,
  "c:et th": 1416,
  "c:rep": 1417,
  "c:s us": 1418,
  "c:as>": 1419,
  "c:l cho": 1420,
  "c:ll ch": 1421,
  "c:ooses": 1422,
  "c:a r": 1423,
  "c:org": 1424,
  "c:n e": 1425,
  "c:mpli": 1426,
  "w:chooses": 1427,
  "c: bi": 1428,
  "w:chooses_to": 1429,
  "c:tory": 1430,
  "c: as>": 1431,
  "c:ble ": 1432,
  "c:s of ": 1433,
  "c:rga": 1434,
  "c:ood ": 1435,
  "c:f a": 1436,
  "c:er t": 1437,
  "c:eci": 1438,
  "w:the_sauce": 1439,
  "c: kno": 1440,
  "c: know": 1441,
  "c:epts": 1442,
  "c:cepts": 1443,
  "c:here": 1444,
  "c:ret t": 1445,
  "w:to_interpret": 1446,
  "c: stor": 1447,
  "c:orga": 1448,
  "c:rgan": 1449,
  "c:organ": 1450,
  "c:ed s": 1451,
  "c:at as": 1452,
  "c:thei": 1453,
  "c: car": 1454,
  "w:meatball_chooses": 1455,
  "w:interpret_that": 1456,
  "w:that_as": 1457,
  "w:the_meatball_chooses": 1458,
  "w:meatball_chooses_to": 1459,
  "w:chooses_to_interpret": 1460,
  "w:to_interpret_that": 1461,
  "w:interpret_that_as": 1462,
  "c:heir": 1463,
  "c: thei": 1464,
  "c:their": 1465,
  "c:t as>": 1466,
  "w:their": 1467,
  "c:<tha": 1468,
  "c:, i": 1469,
  "c:re i": 1470,
  "c:che": 1471,
  "c:e acc": 1472,
  "c:ons ": 1473,
  "c:one ": 1474,
  "c:ndi": 1475,
  "c:king": 1476,
  "c:ens": 1477,
  "c:rati": 1478,
  "c:ies ": 1479,
  "c:m no": 1480,
  "c:rai": 1481,
  "w:th": 1482,
  "c:eir ": 1483,
  "c:heir ": 1484,
  "c:nd p": 1485,
  "c: man": 1486,
  "c:a t": 1487,
  "c: thi": 1488,
  "c:sho": 1489,
  "c:m not": 1490,
  "c:ally ": 1491,
  "c:sua": 1492,
  "c:s or": 1493,
  "c:or a": 1494,
  "c:uce a": 1495,
  "c:vis": 1496,
  "c:in a": 1497,
  "c:ut s": 1498,
  "c:nu": 1499,
  "c:sual": 1500,
  "c:t of": 1501,
  "c:of a": 1502,
  "c: of a": 1503,
  "c:a l": 1504,
  "c:hank": 1505,
  "c:thank": 1506,
  "c:epts ": 1507,
  "c:e l": 1508,
  "c:pres": 1509,
  "c:play": 1510,
  "c:bs": 1511,
  "c:mate": 1512,
  "c:nd m": 1513,
  "c:ccep": 1514,
  "c:accep": 1515,
  "c:ccept": 1516,
  "c:hey": 1517,
  "c: sys": 1518,
  "c:t m": 1519,
  "c:ems": 1520,
  "c:they": 1521,
  "c:ated ": 1522,
  "c:s an ": 1523,
  "c:<than": 1524,
  "c:ot>": 1525,
  "c:tes": 1526,
  "c:ank ": 1527,
  "c: syst": 1528,
  "c:d for": 1529,
  "w:they": 1530,
  "c: al": 1531,
  "c:ce ac": 1532,
  "c:u.": 1533,
  "c:t si": 1534,
  "c:abl": 1535,
  "c:i'": 1536,
  "c:not>": 1537,
  "c: org": 1538,
  "c: orga": 1539,
  "c:cia": 1540,
  "c:ffe": 1541,
  "c: not>": 1542,
  "c:ou.": 1543,
  "c:you.": 1544,
  "c: you.": 1545,
  "w:you.": 1546,
  "c: pu": 1547,
  "c:suc": 1548,
  "c:'m": 1549,
  "c:'m ": 1550,
  "c:ofte": 1551,
  "c:<i'": 1552,
  "c:i'm": 1553,
  "c:<i'm": 1554,
  "c:i'm ": 1555,
  "c:<i'm ": 1556,
  "w:i'm": 1557,
  "c:sen": 1558,
  "c:lity": 1559,
  "c:ase": 1560,
  "c:'m n": 1561,
  "c:i'm n": 1562,
  "c:'m no": 1563,
  "w:i'm_not": 1564,
  "c:ften": 1565,
  "c:often": 1566,
  "c: move": 1567,
  "c:u. ": 1568,
  "c:ou. ": 1569,
  "c:you. ": 1570,
  "c:pts t": 1571,
  "c:rl": 1572,
  "c:g is": 1573,
  "c:ompli": 1574,
  "c:ful": 1575,
  "c:, b": 1576,
  "c:esi": 1577,
  "c:sin": 1578,
  "c:k y": 1579,
  "c:nk y": 1580,
  "w:accepts": 1581,
  "c: suc": 1582,
  "c:ub": 1583,
  "c:on o": 1584,
  "c:k yo": 1585,
  "c:u. t": 1586,
  "c:hank ": 1587,
  "c:ank y": 1588,
  "c:nk yo": 1589,
  "c:k you": 1590,
  "c:ou. t": 1591,
  "w:thank": 1592,
  "w:thank_you.": 1593,
  "c: oft": 1594,
  "c: ofte": 1595,
  "c:lime": 1596,
  "c:u. th": 1597,
  "w:you._the": 1598,
  "w:sauce_accepts": 1599,
  "w:accepts_the": 1600,
  "w:thank_you._the": 1601,
  "w:the_sauce_accepts": 1602,
  "w:often": 1603,
  "c:ture ": 1604,
  "c:orta": 1605,
  "c:plim": 1606,
  "c:mplim": 1607,
  "c:plime": 1608,
  "c:limen": 1609,
  "w:you._the_sauce": 1610,
  "w:sauce_accepts_the": 1611,
  "w:compliment.": 1612,
  "w:the_compliment.": 1613,
  "w:accepts_the_compliment.": 1614,
  "c:ften ": 1615,
  "w:it_is": 1616,
  "w:i": 1617,
  "c: sur": 1618,
  "c:or c": 1619,
  "c:wn": 1620,
  "c: inc": 1621,
  "c:hey ": 1622,
  "c:they ": 1623,
  "c:hea": 1624,
  "c:uni": 1625,
  "c:ruc": 1626,
  "c:r e": 1627,
  "c:its ": 1628,
  "c:. a": 1629,
  "c:d a ": 1630,
  "c:stan": 1631,
  "c:ign": 1632,
  "c:s d": 1633,
  "c:em ": 1634,
  "c:ult": 1635,
  "c:ort ": 1636,
  "c:ass": 1637,
  "c:, f": 1638,
  "c:olo": 1639,
  "c:g is ": 1640,
  "c:thin": 1641,
  "c:ern": 1642,
  "c:ncl": 1643,
  "c:ula": 1644,
  "c:mage": 1645,
  "c: it i": 1646,
  "c:gani": 1647,
  "c:rgani": 1648,
  "c: rea": 1649,
  "c:ib": 1650,
  "c:r f": 1651,
  "c:lect": 1652,
  "c:nal ": 1653,
  "c:e us": 1654,
  "c:and p": 1655,
  "c: na": 1656,
  "c:ld ": 1657,
  "c: gro": 1658,
  "c:ria": 1659,
  "c:bj": 1660,
  "w:put": 1661,
  "c:<w": 1662,
  "c:cs": 1663,
  "c:porta": 1664,
  "c: they": 1665,
  "c:hing": 1666,
  "c: per": 1667,
  "c:s, o": 1668,
  "c:stru": 1669,
  "c:den": 1670,
  "c:d d": 1671,
  "c:red ": 1672,
  "c:abi": 1673,
  "c:dea": 1674,
  "c:r.>": 1675,
  "c: sho": 1676,
  "c:ts.": 1677,
  "c: mi": 1678,
  "c:d co": 1679,
  "c:d r": 1680,
  "c:t h": 1681,
  "c:n p": 1682,
  "c:ona": 1683,
  "c:s e": 1684,
  "c:is an": 1685,
  "c:teri": 1686,
  "c:r b": 1687,
  "c:ead": 1688,
  "c:mor": 1689,
  "c:go": 1690,
  "c:cess": 1691,
  "c:les ": 1692,
  "c:g.": 1693,
  "c:tati": 1694,
  "c:and m": 1695,
  "c:a d": 1696,
  "c:ivi": 1697,
  "c:rit": 1698,
  "c:m i": 1699,
  "c:rts": 1700,
  "c:of t": 1701,
  "c:s l": 1702,
  "c:edi": 1703,
  "c:erg": 1704,
  "c: we": 1705,
  "c: of t": 1706,
  "c:dio": 1707,
  "c:tai": 1708,
  "c:ks ": 1709,
  "c:d the": 1710,
  "c:ions ": 1711,
  "c:<b": 1712,
  "c:ligh": 1713,
  "c:put s": 1714,
  "c:t sim": 1715,
  "c:light": 1716,
  "c:mus": 1717,
  "c:t w": 1718,
  "c:ns.": 1719,
  "c: fa": 1720,
  "c:imply": 1721,
  "c:o t": 1722,
  "c:xpl": 1723,
  "c:sit": 1724,
  "c: ge": 1725,
  "c:app": 1726,
  "c:wha": 1727,
  "c:n m": 1728,
  "c: ab": 1729,
  "c:dev": 1730,
  "c:any": 1731,
  "c:l p": 1732,
  "c: da": 1733,
  "c:ut si": 1734,
  "c:ze": 1735,
  "c: ve": 1736,
  "c: inse": 1737,
  "c:tc": 1738,
  "c:h as": 1739,
  "c:gs ": 1740,
  "w:n": 1741,
  "c: ob": 1742,
  "w:simply,": 1743,
  "c:sig": 1744,
  "w:put_simply,": 1745,
  "c: rel": 1746,
  "c:imag": 1747,
  "c:how ": 1748,
  "c:n a ": 1749,
  "c:ion o": 1750,
  "c:time": 1751,
  "c:chan": 1752,
  "c:uch a": 1753,
  "c:able": 1754,
  "c:ok": 1755,
  "c:h as ": 1756,
  "c:n w": 1757,
  "c:truc": 1758,
  "c:story": 1759,
  "c:ch as": 1760,
  "c:roc": 1761,
  "c:pec": 1762,
  "c: dev": 1763,
  "c:ssi": 1764,
  "c:ack": 1765,
  "c:n an": 1766,
  "c:d st": 1767,
  "c:nd th": 1768,
  "c:in t": 1769,
  "c: prod": 1770,
  "c:d pr": 1771,
  "c:col": 1772,
  "c: ima": 1773,
  "c: imag": 1774,
  "c:ade": 1775,
  "c:rge": 1776,
  "c:lle": 1777,
  "c:l a": 1778,
  "c:ng.": 1779,
  "c:win": 1780,
  "c:such": 1781,
  "c:sing": 1782,
  "c:ng is": 1783,
  "c:tant": 1784,
  "c:ed i": 1785,
  "c: des": 1786,
  "c:any ": 1787,
  "c:nd a ": 1788,
  "c:tems": 1789,
  "c: such": 1790,
  "w:such": 1791,
  "c:lif": 1792,
  "c:t of ": 1793,
  "c:such ": 1794,
  "c:el ": 1795,
  "c: dr": 1796,
  "c:sign": 1797,
  "c:a co": 1798,
  "w:such_as": 1799,
  "c:af": 1800,
  "c:e to": 1801,
  "c:s ma": 1802,
  "c:what": 1803,
  "c:eh": 1804,
  "c:fac": 1805,
  "c:bje": 1806,
  "c:bjec": 1807,
  "c:bject": 1808,
  "c:vin": 1809,
  "c:rma": 1810,
  "c:gra": 1811,
  "c:s or ": 1812,
  "c:oll": 1813,
  "c:clu": 1814,
  "c:<it": 1815,
  "c:cen": 1816,
  "c:ght ": 1817,
  "c:arg": 1818,
  "c:ed o": 1819,
  "c: rep": 1820,
  "c:mai": 1821,
  "c:ilit": 1822,
  "c:ard": 1823,
  "c:e use": 1824,
  "c:, r": 1825,
  "c:gy ": 1826,
  "c:main": 1827,
  "c:ed b": 1828,
  "c:ing s": 1829,
  "c:ot ": 1830,
  "c:ed fo": 1831,
  "c: ce": 1832,
  "c:ngs": 1833,
  "c: spe": 1834,
  "c:<it ": 1835,
  "c:ire": 1836,
  "c:ages": 1837,
  "c:tatio": 1838,
  "c:r d": 1839,
  "c:se t": 1840,
  "c:idea": 1841,
  "c: idea": 1842,
  "c:ric": 1843,
  "c: ra": 1844,
  "c:expl": 1845,
  "c:spo": 1846,
  "c:s use": 1847,
  "c:ovi": 1848,
  "c:s su": 1849,
  "c:y c": 1850,
  "c:image": 1851,
  "c:many": 1852,
  "w:is_an": 1853,
  "c:es an": 1854,
  "c:racti": 1855,
  "w:many": 1856,
  "c:ita": 1857,
  "c:o c": 1858,
  "c:eal": 1859,
  "c:h s": 1860,
  "c:ctu": 1861,
  "c:eati": 1862,
  "c:ory ": 1863,
  "c:owe": 1864,
  "c:hen": 1865,
  "c:ari": 1866,
  "c: res": 1867,
  "c:many ": 1868,
  "c: va": 1869,
  "c:tit": 1870,
  "c:nd e": 1871,
  "c: mus": 1872,
  "c:<pu": 1873,
  "c: par": 1874,
  "c:oce": 1875,
  "c:tec": 1876,
  "c: in a": 1877,
  "c:pen": 1878,
  "c:ing.": 1879,
  "c:nd i": 1880,
  "c:ed a": 1881,
  "c:on a": 1882,
  "c:sic ": 1883,
  "c:ving": 1884,
  "c:pos": 1885,
  "c:s ca": 1886,
  "c:vid": 1887,
  "c:fic": 1888,
  "c:rd ": 1889,
  "c:spec": 1890,
  "c:ori": 1891,
  "c:orma": 1892,
  "c:t be": 1893,
  "c:t d": 1894,
  "c: how": 1895,
  "c: work": 1896,
  "c: or s": 1897,
  "c:ater ": 1898,
  "c:es o": 1899,
  "c:tal ": 1900,
  "c:sion ": 1901,
  "c:y f": 1902,
  "c:mes": 1903,
  "c:e un": 1904,
  "c:struc": 1905,
  "c: expl": 1906,
  "w:how": 1907,
  "c:hav": 1908,
  "c:bod": 1909,
  "c:dat": 1910,
  "c:phy": 1911,
  "c:n of": 1912,
  "c:, d": 1913,
  "c:<an": 1914,
  "c:ere ": 1915,
  "c:tant ": 1916,
  "c:e g": 1917,
  "c:y p": 1918,
  "c:xt": 1919,
  "w:and_a": 1920,
  "c: hea": 1921,
  "c:ree": 1922,
  "c:y of": 1923,
  "c:nclu": 1924,
  "c: how ": 1925,
  "c:und ": 1926,
  "c:ound ": 1927,
  "c:arge": 1928,
  "c:ke ": 1929,
  "c:ruct": 1930,
  "c:truct": 1931,
  "c:ven": 1932,
  "c:ces ": 1933,
  "c:own": 1934,
  "c:ace ": 1935,
  "c:s, s": 1936,
  "c:ind": 1937,
  "c:he a": 1938,
  "c:the a": 1939,
  "c:ling": 1940,
  "c:mpor": 1941,
  "c:rgy": 1942,
  "c:ws": 1943,
  "c:ctiv": 1944,
  "c:onal": 1945,
  "c:ral ": 1946,
  "c:lud": 1947,
  "c:clud": 1948,
  "c:nic": 1949,
  "c:e or": 1950,
  "c: ta": 1951,
  "c:<put": 1952,
  "c:<put ": 1953,
  "c:met": 1954,
  "c:nclud": 1955,
  "c:sl": 1956,
  "c: ot": 1957,
  "c: oth": 1958,
  "c: othe": 1959,
  "c:o a": 1960,
  "c:incl": 1961,
  "c:ism": 1962,
  "c:an i": 1963,
  "c:er,": 1964,
  "c:tran": 1965,
  "c:nis": 1966,
  "c:s, or": 1967,
  "c:oj": 1968,
  "c:roj": 1969,
  "c:oje": 1970,
  "c:proj": 1971,
  "c:roje": 1972,
  "c:ojec": 1973,
  "c:proje": 1974,
  "c:rojec": 1975,
  "c:oject": 1976,
  "c:inclu": 1977,
  "c:er is": 1978,
  "c: tim": 1979,
  "c:sed t": 1980,
  "c: many": 1981,
  "w:one": 1982,
  "c:obj": 1983,
  "c:obje": 1984,
  "c:ts.>": 1985,
  "c:objec": 1986,
  "c:on t": 1987,
  "c:asi": 1988,
  "c:s in ": 1989,
  "c: ad": 1990,
  "c:duct": 1991,
  "c:er, ": 1992,
  "c:rti": 1993,
  "c:log": 1994,
  "c:ves ": 1995,
  "c:h t": 1996,
  "c: col": 1997,
  "c: proj": 1998,
  "c: hi": 1999,
  "c:e n": 2000,
  "c:here ": 2001,
  "c:or p": 2002,
  "c:ile": 2003,
  "c:sk": 2004,
  "c:part": 2005,
  "c: bod": 2006,
  "c:impo": 2007,
  "c: lif": 2008,
  "c:es ar": 2009,
  "c:ctur": 2010,
  "c:mak": 2011,
  "c:nerg": 2012,
  "c:e, a": 2013,
  "c: fu": 2014,
  "c:udio": 2015,
  "c:energ": 2016,
  "c:lps": 2017,
  "c: vis": 2018,
  "c:t an": 2019,
  "c: impo": 2020,
  "w:food": 2021,
  "c: incl": 2022,
  "c:and e": 2023,
  "c:<n": 2024,
  "c:row": 2025,
  "c:king ": 2026,
  "c:hap": 2027,
  "c:eti": 2028,
  "c:is b": 2029,
  "c:bil": 2030,
  "c:too": 2031,
  "c:ight ": 2032,
  "c:y in": 2033,
  "c:lor": 2034,
  "c:impor": 2035,
  "c:mport": 2036,
  "c: ene": 2037,
  "c:sou": 2038,
  "c:rtan": 2039,
  "c:ortan": 2040,
  "c:lps ": 2041,
  "c:rial": 2042,
  "c:musi": 2043,
  "c:usic": 2044,
  "c:music": 2045,
  "c:nder": 2046,
  "c:ergy": 2047,
  "c:e tha": 2048,
  "c:nergy": 2049,
  "c:mati": 2050,
  "c:nt b": 2051,
  "c:food ": 2052,
  "c:, e": 2053,
  "c:rds": 2054,
  "c:g.>": 2055,
  "c:hen ": 2056,
  "c:is i": 2057,
  "c:ower": 2058,
  "c:n of ": 2059,
  "c:ina": 2060,
  "c: th ": 2061,
  "c:y of ": 2062,
  "c:or t": 2063,
  "c:ize": 2064,
  "c:atu": 2065,
  "c:, a ": 2066,
  "c:f th": 2067,
  "c:sup": 2068,
  "c:r w": 2069,
  "c:t r": 2070,
  "c:ame ": 2071,
  "c:rs,": 2072,
  "c:gam": 2073,
  "c:ject ": 2074,
  "c:es. ": 2075,
  "c:erat": 2076,
  "c:omm": 2077,
  "c:comm": 2078,
  "c:m t": 2079,
  "c:o s": 2080,
  "c:ving ": 2081,
  "c:ody": 2082,
  "c: one": 2083,
  "c:ility": 2084,
  "w:used_to": 2085,
  "c:s is": 2086,
  "c: ener": 2087,
  "c: mak": 2088,
  "c: ap": 2089,
  "c:rtant": 2090,
  "c:to t": 2091,
  "c: is b": 2092,
  "c:tar": 2093,
  "c:game": 2094,
  "w:important": 2095,
  "c:cial": 2096,
  "c:upp": 2097,
  "c: a f": 2098,
  "c:al i": 2099,
  "c:er.": 2100,
  "c:as a": 2101,
  "c:forma": 2102,
  "c:rs, ": 2103,
  "c:y an": 2104,
  "c:ife": 2105,
  "c:ice ": 2106,
  "c:ed p": 2107,
  "c: a l": 2108,
  "c:cture": 2109,
  "c:een": 2110,
  "c:bili": 2111,
  "c:jects": 2112,
  "c:in th": 2113,
  "c:tern": 2114,
  "c:lli": 2115,
  "c:ppo": 2116,
  "c:air": 2117,
  "c:, co": 2118,
  "c:he st": 2119,
  "c:rth": 2120,
  "c:t k": 2121,
  "c: mate": 2122,
  "c:r an": 2123,
  "c: ev": 2124,
  "c:atur": 2125,
  "c:is.": 2126,
  "c:an o": 2127,
  "c:fee": 2128,
  "c:vers": 2129,
  "c:tain": 2130,
  "c:bas": 2131,
  "c:n'": 2132,
  "c:mot": 2133,
  "c:arr": 2134,
  "c:ck ": 2135,
  "c:gu": 2136,
  "c:peri": 2137,
  "c:s is ": 2138,
  "c:ng.>": 2139,
  "c:bilit": 2140,
  "c:eria": 2141,
  "c:es, a": 2142,
  "c:<ma": 2143,
  "c:elps": 2144,
  "c:helps": 2145,
  "c:a u": 2146,
  "c:re a": 2147,
  "c: obj": 2148,
  "c: obje": 2149,
  "c: sup": 2150,
  "c:cy": 2151,
  "c:ls,": 2152,
  "c:eate": 2153,
  "c:<an ": 2154,
  "c:er a": 2155,
  "c:<it i": 2156,
  "c: lar": 2157,
  "w:helps": 2158,
  "c:ectio": 2159,
  "c:erf": 2160,
  "c:nto": 2161,
  "c:rov": 2162,
  "c:m is": 2163,
  "c:ned": 2164,
  "c:ese": 2165,
  "c:ape": 2166,
  "c:ook": 2167,
  "c:a st": 2168,
  "c:elps ": 2169,
  "c:to c": 2170,
  "c:out ": 2171,
  "c:tudi": 2172,
  "c:rts ": 2173,
  "c:teria": 2174,
  "c:se th": 2175,
  "c:g p": 2176,
  "c:oduct": 2177,
  "c:ls, ": 2178,
  "c:late": 2179,
  "c:l b": 2180,
  "c:ratio": 2181,
  "c:ext": 2182,
  "c:is.>": 2183,
  "c:d h": 2184,
  "c: time": 2185,
  "c:hang": 2186,
  "c:val": 2187,
  "c:r l": 2188,
  "c: a r": 2189,
  "c:studi": 2190,
  "c:supp": 2191,
  "c:unde": 2192,
  "c:sing ": 2193,
  "c: chan": 2194,
  "c: musi": 2195,
  "c:ng p": 2196,
  "c:ual ": 2197,
  "c:ns,": 2198,
  "c:chang": 2199,
  "c:roun": 2200,
  "c:round": 2201,
  "c:tho": 2202,
  "c:e fo": 2203,
  "c:<i ": 2204,
  "c:ul ": 2205,
  "c:ry i": 2206,
  "c:ird": 2207,
  "c:rb": 2208,
  "c:e h": 2209,
  "c:ful ": 2210,
  "c:ges ": 2211,
  "c:t l": 2212,
  "c:son": 2213,
  "c:t in": 2214,
  "c: act": 2215,
  "c: nu": 2216,
  "c:gl": 2217,
  "c:tron": 2218,
  "c:life": 2219,
  "c:hes": 2220,
  "c:m is ": 2221,
  "c:erial": 2222,
  "c:res ": 2223,
  "c: supp": 2224,
  "c: one ": 2225,
  "c:l.": 2226,
  "c:lic": 2227,
  "c:nd o": 2228,
  "c:f a ": 2229,
  "c:n fo": 2230,
  "c:gin": 2231,
  "c:d by": 2232,
  "c:s co": 2233,
  "c:peci": 2234,
  "c:speci": 2235,
  "c:d an": 2236,
  "w:of_a": 2237,
  "c:wr": 2238,
  "c:ong ": 2239,
  "c:ters": 2240,
  "c:ns.>": 2241,
  "c:evi": 2242,
  "c: part": 2243,
  "c:ativ": 2244,
  "c:ns, ": 2245,
  "c:or i": 2246,
  "c: gam": 2247,
  "c:d ma": 2248,
  "c:of a ": 2249,
  "c: comm": 2250,
  "c: el": 2251,
  "c:ateri": 2252,
  "c:ings": 2253,
  "c:<a c": 2254,
  "c:sma": 2255,
  "c:<f": 2256,
  "c:s fo": 2257,
  "c:mater": 2258,
  "c:r r": 2259,
  "c:d by ": 2260,
  "c: game": 2261,
  "c:ing.>": 2262,
  "c:y m": 2263,
  "c: app": 2264,
  "c:actio": 2265,
  "c:body": 2266,
  "c:. a ": 2267,
  "c:rk ": 2268,
  "c:ors": 2269,
  "c:nto ": 2270,
  "c:oti": 2271,
  "c:e, an": 2272,
  "c:bir": 2273,
  "c: fee": 2274,
  "c:w.": 2275,
  "c:ants": 2276,
  "c:nds": 2277,
  "c: life": 2278,
  "c:age ": 2279,
  "c:ted s": 2280,
  "c: a d": 2281,
  "c:at.": 2282,
  "c: play": 2283,
  "c:vic": 2284,
  "c:e re": 2285,
  "c:lity ": 2286,
  "c:eth": 2287,
  "c:stems": 2288,
  "c:cie": 2289,
  "c:ali": 2290,
  "c: mor": 2291,
  "c:<a s": 2292,
  "c:s re": 2293,
  "c:ance ": 2294,
  "c:ons.": 2295,
  "c:n d": 2296,
  "c:der ": 2297,
  "c: mai": 2298,
  "c: main": 2299,
  "c:hn": 2300,
  "c: in t": 2301,
  "c:e in ": 2302,
  "c:athe": 2303,
  "c:uctu": 2304,
  "c:ructu": 2305,
  "c:uctur": 2306,
  "c:t e": 2307,
  "c:wn ": 2308,
  "c:ress": 2309,
  "c:larg": 2310,
  "c: larg": 2311,
  "c:large": 2312,
  "c: art": 2313,
  "c:ppor": 2314,
  "c:pport": 2315,
  "c:bird": 2316,
  "c:ger": 2317,
  "c:n r": 2318,
  "c:ient": 2319,
  "c: to c": 2320,
  "c:f the": 2321,
  "c:w.>": 2322,
  "c:unt": 2323,
  "c:wing": 2324,
  "c:ence ": 2325,
  "c:t a ": 2326,
  "c:evel": 2327,
  "c:our": 2328,
  "c: form": 2329,
  "c: sma": 2330,
  "c:als ": 2331,
  "c:tre": 2332,
  "c:into": 2333,
  "c:duce": 2334,
  "c:net": 2335,
  "c:ow.": 2336,
  "c:to s": 2337,
  "c: body": 2338,
  "c:sis": 2339,
  "c:ew": 2340,
  "c:of th": 2341,
  "c: into": 2342,
  "c:vice": 2343,
  "c:e mo": 2344,
  "c:h i": 2345,
  "c:cro": 2346,
  "c:under": 2347,
  "c:e pro": 2348,
  "c:at.>": 2349,
  "c:rans": 2350,
  "c:o p": 2351,
  "w:into": 2352,
  "c:ine ": 2353,
  "c:n be": 2354,
  "c:trans": 2355,
  "c:oss": 2356,
  "c:ool": 2357,
  "c:d re": 2358,
  "c:uppo": 2359,
  "c:suppo": 2360,
  "c:uppor": 2361,
  "c:nst": 2362,
  "c:n, a": 2363,
  "c:nd r": 2364,
  "c:es th": 2365,
  "c:y, a": 2366,
  "c:nm": 2367,
  "c:ned ": 2368,
  "c:tic ": 2369,
  "c:ents ": 2370,
  "c:into ": 2371,
  "c:roce": 2372,
  "c:inf": 2373,
  "c:ow.>": 2374,
  "c:a w": 2375,
  "c:he b": 2376,
  "c:the b": 2377,
  "c:sse": 2378,
  "c:nsi": 2379,
  "w:use": 2380,
  "c:more": 2381,
  "c: ele": 2382,
  "c:rien": 2383,
  "c:t co": 2384,
  "c: or c": 2385,
  "c:ous": 2386,
  "c:on of": 2387,
  "c:ara": 2388,
  "c:nati": 2389,
  "c:lati": 2390,
  "c:clea": 2391,
  "c:lear": 2392,
  "c: stru": 2393,
  "c:reati": 2394,
  "c:d l": 2395,
  "c:isi": 2396,
  "c: an a": 2397,
  "c:tch": 2398,
  "c:proc": 2399,
  "c:t bec": 2400,
  "c:cte": 2401,
  "c: ov": 2402,
  "c:nd f": 2403,
  "c:lon": 2404,
  "c:is be": 2405,
  "c: more": 2406,
  "c:rce": 2407,
  "c:ert": 2408,
  "c:proce": 2409,
  "c:t kn": 2410,
  "c:lm": 2411,
  "c:ions.": 2412,
  "c:enta": 2413,
  "c:xpe": 2414,
  "c:expe": 2415,
  "c:e a ": 2416,
  "c:prov": 2417,
  "c:ative": 2418,
  "c: gen": 2419,
  "c:t kno": 2420,
  "c:ed.": 2421,
  "c:ote": 2422,
  "c:d is": 2423,
  "c:ich": 2424,
  "c:ode": 2425,
  "c:use t": 2426,
  "c:lv": 2427,
  "c:thing": 2428,
  "c:mages": 2429,
  "c: too": 2430,
  "c: use ": 2431,
  "c:lac": 2432,
  "c:e to ": 2433,
  "c:y and": 2434,
  "c: und": 2435,
  "c: or a": 2436,
  "c: s t": 2437,
  "c: unde": 2438,
  "c: proc": 2439,
  "c:don": 2440,
  "w:other": 2441,
  "c:nne": 2442,
  "c: to t": 2443,
  "c:r co": 2444,
  "c:hou": 2445,
  "c: ove": 2446,
  "c:ata": 2447,
  "c:o th": 2448,
  "w:water": 2449,
  "c:opl": 2450,
  "c:shi": 2451,
  "c:<wh": 2452,
  "c:ms, a": 2453,
  "c:iona": 2454,
  "c:mall": 2455,
  "c:ars": 2456,
  "c:onal ": 2457,
  "c:t and": 2458,
  "c:face": 2459,
  "c:liv": 2460,
  "c:them": 2461,
  "c:hu": 2462,
  "c:nd co": 2463,
  "c:nec": 2464,
  "c: its": 2465,
  "c:ach": 2466,
  "c:able ": 2467,
  "c:ver ": 2468,
  "c:cs ": 2469,
  "c: is.": 2470,
  "w:is.": 2471,
  "c:ill": 2472,
  "c:g f": 2473,
  "c:nd d": 2474,
  "w:more": 2475,
  "c: is.>": 2476,
  "c:on'": 2477,
  "c:al p": 2478,
  "c:l o": 2479,
  "c:ela": 2480,
  "c:qui": 2481,
  "c:ucti": 2482,
  "c:y b": 2483,
  "c:hange": 2484,
  "c:d is ": 2485,
  "c:more ": 2486,
  "c: tran": 2487,
  "c:art ": 2488,
  "c:ndin": 2489,
  "c:nding": 2490,
  "c:when": 2491,
  "w:when": 2492,
  "c:a g": 2493,
  "c:oces": 2494,
  "c:roces": 2495,
  "c:ocess": 2496,
  "c:i d": 2497,
  "c:at c": 2498,
  "c: ear": 2499,
  "c:ura": 2500,
  "c:t is.": 2501,
  "w:is_because": 2502,
  "w:it_is.": 2503,
  "w:it_is_because": 2504,
  "w:is_because_it": 2505,
  "w:because_it_is.": 2506,
  "c:eel": 2507,
  "c:cul": 2508,
  "c:vide": 2509,
  "c: q": 2510,
  "c:ysi": 2511,
  "c:rain": 2512,
  "c: lea": 2513,
  "c:uil": 2514,
  "c:th a": 2515,
  "c:rate": 2516,
  "c:ing p": 2517,
  "c:erv": 2518,
  "c:tudio": 2519,
  "c:pac": 2520,
  "c: cle": 2521,
  "c:stro": 2522,
  "c: lig": 2523,
  "c:nt i": 2524,
  "c:hys": 2525,
  "c:phys": 2526,
  "c: ligh": 2527,
  "c:smal": 2528,
  "c:small": 2529,
  "c: expe": 2530,
  "c:y to": 2531,
  "c: don": 2532,
  "w:t": 2533,
  "c:osi": 2534,
  "w:at": 2535,
  "c: smal": 2536,
  "c:flo": 2537,
  "c:and i": 2538,
  "c:trai": 2539,
  "c:es i": 2540,
  "c:rot": 2541,
  "c:ce t": 2542,
  "c:er.>": 2543,
  "c: cu": 2544,
  "c:abil": 2545,
  "c:abili": 2546,
  "c:ce i": 2547,
  "c:to a": 2548,
  "c:and r": 2549,
  "c:us ": 2550,
  "c:rm ": 2551,
  "c:ea ": 2552,
  "c:ope": 2553,
  "c:, l": 2554,
  "c:n, an": 2555,
  "c: when": 2556,
  "c: a u": 2557,
  "c:eli": 2558,
  "c:s, t": 2559,
  "c: clea": 2560,
  "c:nism": 2561,
  "c:ng f": 2562,
  "c:e or ": 2563,
  "c:mer": 2564,
  "c:atin": 2565,
  "c:own ": 2566,
  "c:anis": 2567,
  "c:re p": 2568,
  "c: a t": 2569,
  "c:ato": 2570,
  "c:desi": 2571,
  "c:iden": 2572,
  "c:die": 2573,
  "c:a mo": 2574,
  "c:een ": 2575,
  "c:yes": 2576,
  "c:isu": 2577,
  "c:i do": 2578,
  "c:when ": 2579,
  "c:mic": 2580,
  "c:s can": 2581,
  "c:es b": 2582,
  "c:ici": 2583,
  "c:uce.": 2584,
  "c:shap": 2585,
  "c:tory ": 2586,
  "c:rent": 2587,
  "c:now.": 2588,
  "c:g the": 2589,
  "c:rol": 2590,
  "c:dent": 2591,
  "c:r in": 2592,
  "c:'t": 2593,
  "c:re,": 2594,
  "c:bui": 2595,
  "c:buil": 2596,
  "c:d u": 2597,
  "c:stron": 2598,
  "c:n't": 2599,
  "c:'t ": 2600,
  "c:n't ": 2601,
  "c:now.>": 2602,
  "c:ating": 2603,
  "c:<r": 2604,
  "c:wher": 2605,
  "c:where": 2606,
  "c:som": 2607,
  "c:d on": 2608,
  "c:ople": 2609,
  "c: pi": 2610,
  "c:re, ": 2611,
  "c:ce o": 2612,
  "c:ns a": 2613,
  "c:anism": 2614,
  "c:don'": 2615,
  "c:on't": 2616,
  "c: don'": 2617,
  "c:don't": 2618,
  "c:on't ": 2619,
  "w:don't": 2620,
  "c:some": 2621,
  "w:be": 2622,
  "c:<i d": 2623,
  "c:<i do": 2624,
  "c:mos": 2625,
  "c:esig": 2626,
  "c:y th": 2627,
  "c:<d": 2628,
  "c: desi": 2629,
  "c: a co": 2630,
  "c:er o": 2631,
  "c:i don": 2632,
  "w:i_don't": 2633,
  "c:ed by": 2634,
  "c:l.>": 2635,
  "c:d pro": 2636,
  "c:know.": 2637,
  "w:know.": 2638,
  "c: be ": 2639,
  "c:an e": 2640,
  "c:icat": 2641,
  "c:eng": 2642,
  "c:hor": 2643,
  "c:nit": 2644,
  "c:'t k": 2645,
  "c:n't k": 2646,
  "c:'t kn": 2647,
  "w:don't_know.": 2648,
  "w:i_don't_know.": 2649,
  "c:esign": 2650,
  "c:ody ": 2651,
  "c:desig": 2652,
  "c:eren": 2653,
  "c:ather": 2654,
  "c: bas": 2655,
  "c: sou": 2656,
  "c:way": 2657,
  "c: s th": 2658,
  "c:lants": 2659,
  "c:l r": 2660,
  "c:s a p": 2661,
  "w:of_the": 2662,
  "c: wher": 2663,
  "w:where": 2664,
  "c:rfa": 2665,
  "c:rs t": 2666,
  "c:al s": 2667,
  "c:nim": 2668,
  "c:ord": 2669,
  "c: them": 2670,
  "c:ional": 2671,
  "c:rese": 2672,
  "c:pt ": 2673,
  "c:not ": 2674,
  "c:alt": 2675,
  "c:<y": 2676,
  "c:ce.>": 2677,
  "c:rn ": 2678,
  "c:y w": 2679,
  "c:visu": 2680,
  "c:isua": 2681,
  "c:visua": 2682,
  "c:isual": 2683,
  "c:ond": 2684,
  "c: over": 2685,
  "c:ich ": 2686,
  "c:s wi": 2687,
  "c:matt": 2688,
  "c:apt": 2689,
  "c:ifi": 2690,
  "c:ming": 2691,
  "c:ove ": 2692,
  "c:hat.": 2693,
  "c:dif": 2694,
  "c:<wha": 2695,
  "c:ide ": 2696,
  "c:mn": 2697,
  "c:ates": 2698,
  "c:s im": 2699,
  "c:g m": 2700,
  "c:eop": 2701,
  "c:s on": 2702,
  "c: phy": 2703,
  "c:s, c": 2704,
  "w:its": 2705,
  "c:hing ": 2706,
  "c:pin": 2707,
  "c:ctive": 2708,
  "c:epe": 2709,
  "c:bra": 2710,
  "c:y r": 2711,
  "c:but": 2712,
  "c:peo": 2713,
  "c:peop": 2714,
  "c:eopl": 2715,
  "c:peopl": 2716,
  "c:eople": 2717,
  "c: phys": 2718,
  "c:ude": 2719,
  "c: its ": 2720,
  "c:n for": 2721,
  "c:and o": 2722,
  "c:<what": 2723,
  "c:hat.>": 2724,
  "c: to s": 2725,
  "c:o the": 2726,
  "c:hape": 2727,
  "c:shape": 2728,
  "c:ders": 2729,
  "c:e. ": 2730,
  "c:auce.": 2731,
  "c:emo": 2732,
  "c:rds ": 2733,
  "c:xper": 2734,
  "c:exper": 2735,
  "c:ad ": 2736,
  "c:hysi": 2737,
  "c:physi": 2738,
  "c:nt be": 2739,
  "c:moti": 2740,
  "c:or m": 2741,
  "c:nima": 2742,
  "c:rst": 2743,
  "c:s, p": 2744,
  "c:what.": 2745,
  "w:what.": 2746,
  "c:matte": 2747,
  "c:rela": 2748,
  "c:xperi": 2749,
  "c:arth": 2750,
  "w:in_the": 2751,
  "c:and d": 2752,
  "c:grou": 2753,
  "c:cn": 2754,
  "w:f": 2755,
  "c: matt": 2756,
  "c:rfac": 2757,
  "c:rface": 2758,
  "c:on, a": 2759,
  "c:s a c": 2760,
  "c:anim": 2761,
  "c:or e": 2762,
  "c:fere": 2763,
  "c:n or": 2764,
  "c: inf": 2765,
  "c:mean": 2766,
  "c:sed f": 2767,
  "c:cor": 2768,
  "c:let": 2769,
  "c: cat": 2770,
  "c: liv": 2771,
  "c:ng m": 2772,
  "c:ganis": 2773,
  "c:be.": 2774,
  "c:ave ": 2775,
  "c:avi": 2776,
  "c:ysic": 2777,
  "c:hysic": 2778,
  "c:nd h": 2779,
  "c:be.>": 2780,
  "c:y to ": 2781,
  "c:, in": 2782,
  "c:qua": 2783,
  "c: qu": 2784,
  "c:mon": 2785,
  "c:bre": 2786,
  "c:this": 2787,
  "c: this": 2788,
  "w:this": 2789,
  "c:elec": 2790,
  "c:elect": 2791,
  "c:tica": 2792,
  "c:iff": 2793,
  "c:feren": 2794,
  "c:port ": 2795,
  "c:, st": 2796,
  "c:l f": 2797,
  "c:eac": 2798,
  "c:tel": 2799,
  "c:serv": 2800,
  "c:his ": 2801,
  "c:ems ": 2802,
  "c:<may": 2803,
  "c:<mayb": 2804,
  "c:hat c": 2805,
  "c:ctr": 2806,
  "c:aw": 2807,
  "c:ybe.": 2808,
  "c:aybe.": 2809,
  "c:ybe.>": 2810,
  "w:maybe.": 2811,
  "w:maybe_maybe": 2812,
  "w:maybe_maybe.": 2813,
  "w:maybe_maybe_maybe.": 2814,
  "c:io ": 2815,
  "c:this ": 2816,
  "c:natio": 2817,
  "c: a st": 2818,
  "c:e..": 2819,
  "c: spec": 2820,
  "c:tab": 2821,
  "c:anima": 2822,
  "c: is i": 2823,
  "c: mean": 2824,
  "c:t u": 2825,
  "c:ce,": 2826,
  "c:...": 2827,
  "c:..>": 2828,
  "c:ce..": 2829,
  "c:e...": 2830,
  "c:...>": 2831,
  "c:uce..": 2832,
  "c:ce...": 2833,
  "c:e...>": 2834,
  "w:sauce...": 2835,
  "w:the_sauce...": 2836,
  "c:nly": 2837,
  "c:cent": 2838,
  "c:devi": 2839,
  "c:pho": 2840,
  "c:rvi": 2841,
  "c:a re": 2842,
  "w:body": 2843,
  "c:tiona": 2844,
  "c:elo": 2845,
  "c: shap": 2846,
  "c:body ": 2847,
  "c:ws ": 2848,
  "c:make": 2849,
  "c:evic": 2850,
  "c:devic": 2851,
  "c:evice": 2852,
  "c:ty i": 2853,
  "c:mul": 2854,
  "c:whic": 2855,
  "c:hich": 2856,
  "c:which": 2857,
  "c:l e": 2858,
  "c:diff": 2859,
  "c:elat": 2860,
  "c:bit": 2861,
  "c:nera": 2862,
  "c:ce, ": 2863,
  "c:ros": 2864,
  "c: make": 2865,
  "c:eart": 2866,
  "c:rgy ": 2867,
  "c: whic": 2868,
  "c:olog": 2869,
  "c:g c": 2870,
  "c: uni": 2871,
  "c:relat": 2872,
  "c:ome ": 2873,
  "c: devi": 2874,
  "w:which": 2875,
  "c:and f": 2876,
  "w:insect": 2877,
  "c:yi": 2878,
  "c:rmat": 2879,
  "c:ty,": 2880,
  "c:e pl": 2881,
  "c:ormat": 2882,
  "c:ery": 2883,
  "c:cin": 2884,
  "c:al c": 2885,
  "c:s a u": 2886,
  "c:reate": 2887,
  "c:yin": 2888,
  "c:ying": 2889,
  "c: rec": 2890,
  "c:d on ": 2891,
  "c:gg": 2892,
  "c:cate": 2893,
  "c:gene": 2894,
  "c: bui": 2895,
  "c: buil": 2896,
  "c:cus": 2897,
  "c:ile ": 2898,
  "c:o m": 2899,
  "c:hich ": 2900,
  "c:tem ": 2901,
  "c:read": 2902,
  "c:pat": 2903,
  "c:ty, ": 2904,
  "c:s wit": 2905,
  "c:s th ": 2906,
  "c:sect ": 2907,
  "c:tems ": 2908,
  "c:. i": 2909,
  "c:nect": 2910,
  "c:aye": 2911,
  "c:tm": 2912,
  "c:d in ": 2913,
  "c:ln": 2914,
  "c:ulat": 2915,
  "c:he u": 2916,
  "c:the u": 2917,
  "c:, wh": 2918,
  "c: wr": 2919,
  "c:and h": 2920,
  "c:er th": 2921,
  "c:l m": 2922,
  "c:laye": 2923,
  "c:old": 2924,
  "c:pol": 2925,
  "c:nd w": 2926,
  "c: bir": 2927,
  "c:ts o": 2928,
  "c:n and": 2929,
  "c:ute": 2930,
  "c:e pla": 2931,
  "c:y d": 2932,
  "c:ref": 2933,
  "c:to th": 2934,
  "c:lp ": 2935,
  "c:ant b": 2936,
  "c:sica": 2937,
  "c:sical": 2938,
  "c:nly ": 2939,
  "c:latio": 2940,
  "c:ffer": 2941,
  "c:mod": 2942,
  "c:sent": 2943,
  "c:eep": 2944,
  "w:ai": 2945,
  "c:isto": 2946,
  "c:dit": 2947,
  "c:a un": 2948,
  "c:ion a": 2949,
  "w:used_for": 2950,
  "c:lude": 2951,
  "c: in s": 2952,
  "c: ani": 2953,
  "c: anim": 2954,
  "c:clude": 2955,
  "c:earth": 2956,
  "c:matio": 2957,
  "c:in a ": 2958,
  "c: em": 2959,
  "c:th s": 2960,
  "c:f s": 2961,
  "c:r and": 2962,
  "c:tes ": 2963,
  "c:eq": 2964,
  "c:equ": 2965,
  "c:re t": 2966,
  "c:plac": 2967,
  "c:get": 2968,
  "c:ergy ": 2969,
  "c: bird": 2970,
  "w:r": 2971,
  "w:important_because": 2972,
  "c: dif": 2973,
  "c: diff": 2974,
  "c:tool": 2975,
  "c:prese": 2976,
  "c:llin": 2977,
  "c:dio ": 2978,
  "c:ai ": 2979,
  "c:istor": 2980,
  "c: visu": 2981,
  "c:spor": 2982,
  "c:epr": 2983,
  "c:uctio": 2984,
  "c: acti": 2985,
  "c:try": 2986,
  "c:ed w": 2987,
  "c:is u": 2988,
  "c:nd re": 2989,
  "c: hu": 2990,
  "c:otio": 2991,
  "c:otion": 2992,
  "c:motio": 2993,
  "c:ini": 2994,
  "c:ork ": 2995,
  "c:f m": 2996,
  "c:ish": 2997,
  "c:tera": 2998,
  "c:a n": 2999,
  "c:ows": 3000,
  "c: som": 3001,
  "c: some": 3002,
  "c:e de": 3003,
  "c:ail": 3004,
  "c:e be": 3005,
  "c:repr": 3006,
  "c:vem": 3007,
  "c:veme": 3008,
  "c:vemen": 3009,
  "w:energy": 3010,
  "c:, h": 3011,
  "c:ade ": 3012,
  "c:ducti": 3013,
  "c: tool": 3014,
  "c: not ": 3015,
  "c:ific": 3016,
  "c:rs a": 3017,
  "c:an in": 3018,
  "c: peo": 3019,
  "c: peop": 3020,
  "c:est ": 3021,
  "c:g in": 3022,
  "c:al t": 3023,
  "c:le i": 3024,
  "c:ing f": 3025,
  "c:med": 3026,
  "c:e stu": 3027,
  "c: eve": 3028,
  "c:long": 3029,
  "c:s pr": 3030,
  "c:g or": 3031,
  "c:d and": 3032,
  "c:h a ": 3033,
  "c: lan": 3034,
  "c: a un": 3035,
  "c: f ": 3036,
  "c:ed in": 3037,
  "c:ng or": 3038,
  "c:ng c": 3039,
  "c:h p": 3040,
  "c:t ca": 3041,
  "c:nme": 3042,
  "c:h,": 3043,
  "c:set": 3044,
  "c:ano": 3045,
  "c:udio ": 3046,
  "c:ling ": 3047,
  "c:sual ": 3048,
  "c:eta": 3049,
  "c:ters ": 3050,
  "c:ocu": 3051,
  "c:ovem": 3052,
  "c:oveme": 3053,
  "c: than": 3054,
  "c:ds,": 3055,
  "c:irds": 3056,
  "c:birds": 3057,
  "c:prot": 3058,
  "c:rs.": 3059,
  "c:e>": 3060,
  "c:m th": 3061,
  "c:uall": 3062,
  "c:ually": 3063,
  "c:sw": 3064,
  "c:des ": 3065,
  "c:lace": 3066,
  "c:ds, ": 3067,
  "c:s suc": 3068,
  "c:over ": 3069,
  "c: ou": 3070,
  "c:stem ": 3071,
  "c:ons.>": 3072,
  "c: as a": 3073,
  "c:or d": 3074,
  "c:h, ": 3075,
  "c:fe ": 3076,
  "c:rong": 3077,
  "c:nsp": 3078,
  "c:ech": 3079,
  "c:feel": 3080,
  "c:nmen": 3081,
  "c:nment": 3082,
  "c:xi": 3083,
  "c: ke": 3084,
  "c:fil": 3085,
  "c:star": 3086,
  "c:icl": 3087,
  "c:ware": 3088,
  "c:s, m": 3089,
  "c:ole": 3090,
  "c:usin": 3091,
  "c:han ": 3092,
  "c:ants ": 3093,
  "c:nd b": 3094,
  "c:ng in": 3095,
  "c:l w": 3096,
  "c:ust": 3097,
  "c:place": 3098,
  "c:onc": 3099,
  "c:tex": 3100,
  "c:have": 3101,
  "c:r u": 3102,
  "c:, su": 3103,
  "c: feel": 3104,
  "c: n ": 3105,
  "c:ded": 3106,
  "c:or o": 3107,
  "c:sport": 3108,
  "c:ls.": 3109,
  "c:than ": 3110,
  "c:ed on": 3111,
  "c:reg": 3112,
  "c:data": 3113,
  "c:ane": 3114,
  "c:t to": 3115,
  "w:than": 3116,
  "c: pres": 3117,
  "c:work ": 3118,
  "c:oduce": 3119,
  "c:g b": 3120,
  "c:lar ": 3121,
  "c:s a m": 3122,
  "c:arti": 3123,
  "c:n u": 3124,
  "c:ator": 3125,
  "c: repr": 3126,
  "c:ing m": 3127,
  "w:plant": 3128,
  "c:using": 3129,
  "w:s_th": 3130,
  "c:at i": 3131,
  "c:lls": 3132,
  "c:text": 3133,
  "c:s wh": 3134,
  "c: prot": 3135,
  "c:imal": 3136,
  "c:es c": 3137,
  "c:tect": 3138,
  "c:iffe": 3139,
  "c:diffe": 3140,
  "c:iffer": 3141,
  "c:n h": 3142,
  "c:lant ": 3143,
  "c:que": 3144,
  "c:ments": 3145,
  "c:del": 3146,
  "c:h th": 3147,
  "c:ident": 3148,
  "c:at s": 3149,
  "c:ienc": 3150,
  "c:d n": 3151,
  "c:oci": 3152,
  "c:ity i": 3153,
  "c:e se": 3154,
  "c: flo": 3155,
  "c:inat": 3156,
  "c: out": 3157,
  "c:ost": 3158,
  "c:t fo": 3159,
  "c:ures": 3160,
  "c:ets": 3161,
  "w:small": 3162,
  "c:tn ": 3163,
  "c:icle": 3164,
  "c:ami": 3165,
  "c:cati": 3166,
  "c:s imp": 3167,
  "c:hist": 3168,
  "c:efu": 3169,
  "c:yer": 3170,
  "c:sn": 3171,
  "c:esti": 3172,
  "c:e su": 3173,
  "c: gene": 3174,
  "c:ber": 3175,
  "c:ake ": 3176,
  "c:mar": 3177,
  "c:a unl": 3178,
  "w:a_unlim8ted": 3179,
  "c:movem": 3180,
  "c:hil": 3181,
  "c:mall ": 3182,
  "c:cial ": 3183,
  "c:f p": 3184,
  "c: but": 3185,
  "c:s for": 3186,
  "c:urf": 3187,
  "c:y e": 3188,
  "c:ng b": 3189,
  "c: is u": 3190,
  "c:sof": 3191,
  "c:loc": 3192,
  "c:id ": 3193,
  "c: an i": 3194,
  "c:k i": 3195,
  "c:rent ": 3196,
  "c:t re": 3197,
  "c: dat": 3198,
  "c:s, a ": 3199,
  "c: rela": 3200,
  "c:g w": 3201,
  "c:shar": 3202,
  "c: to a": 3203,
  "c:nnec": 3204,
  "c:osy": 3205,
  "c:eak": 3206,
  "c:soft": 3207,
  "c:sms": 3208,
  "c: mod": 3209,
  "c:surf": 3210,
  "c:urfa": 3211,
  "c:surfa": 3212,
  "c:urfac": 3213,
  "c:on th": 3214,
  "w:help": 3215,
  "c:soc": 3216,
  "c: eart": 3217,
  "c:etw": 3218,
  "c:histo": 3219,
  "w:visual": 3220,
  "c:nct": 3221,
  "c:ntai": 3222,
  "c:ntain": 3223,
  "c:ayer": 3224,
  "c:layer": 3225,
  "c:<ye": 3226,
  "c:trac": 3227,
  "c:s g": 3228,
  "c: pol": 3229,
  "c:s fr": 3230,
  "c:a ba": 3231,
  "c:ffere": 3232,
  "c:mad": 3233,
  "c:eful": 3234,
  "c:oli": 3235,
  "c:dl": 3236,
  "c:mpe": 3237,
  "c: or p": 3238,
  "c:ng w": 3239,
  "c: plac": 3240,
  "c:ages ": 3241,
  "c:a h": 3242,
  "c:elp ": 3243,
  "c:help ": 3244,
  "c:spa": 3245,
  "c:ries": 3246,
  "c:flow": 3247,
  "c:t or": 3248,
  "c:made": 3249,
  "c:eral": 3250,
  "w:project": 3251,
  "c:ores": 3252,
  "c:he pr": 3253,
  "c:ary": 3254,
  "c:ount": 3255,
  "c:tanc": 3256,
  "c:tance": 3257,
  "w:is_a_unlim8ted": 3258,
  "c:fin": 3259,
  "c:onn": 3260,
  "c:emi": 3261,
  "c:denti": 3262,
  "c:g an": 3263,
  "c: data": 3264,
  "c:ty.": 3265,
  "c:uses": 3266,
  "c:, n": 3267,
  "c:ete": 3268,
  "c:onne": 3269,
  "c:tical": 3270,
  "c:tent": 3271,
  "c:nten": 3272,
  "c:h o": 3273,
  "c:vit": 3274,
  "c:ts, a": 3275,
  "c:l is": 3276,
  "c: sof": 3277,
  "c: surf": 3278,
  "c:conn": 3279,
  "c:ying ": 3280,
  "w:people": 3281,
  "c:ngs ": 3282,
  "c:coo": 3283,
  "c:ty is": 3284,
  "w:music": 3285,
  "c:catio": 3286,
  "c:conne": 3287,
  "c:onnec": 3288,
  "c:nnect": 3289,
  "c:ople ": 3290,
  "c:rect": 3291,
  "c: soft": 3292,
  "c:bro": 3293,
  "c:vol": 3294,
  "c:t the": 3295,
  "c:has": 3296,
  "c:r the": 3297,
  "c:he w": 3298,
  "c:<yes": 3299,
  "c:menta": 3300,
  "c:sects": 3301,
  "c:deas": 3302,
  "c:ideas": 3303,
  "c: che": 3304,
  "c:sol": 3305,
  "c:the w": 3306,
  "c: grou": 3307,
  "c:clo": 3308,
  "c: fil": 3309,
  "c:al a": 3310,
  "c:line": 3311,
  "c:conc": 3312,
  "c:ed st": 3313,
  "c:usic ": 3314,
  "c:ana": 3315,
  "c:an b": 3316,
  "c:scr": 3317,
  "c:ng an": 3318,
  "c: hav": 3319,
  "c:nimal": 3320,
  "c:ely": 3321,
  "c:have ": 3322,
  "c: trai": 3323,
  "c:e v": 3324,
  "c: r ": 3325,
  "c:to p": 3326,
  "c:ox": 3327,
  "c: ai ": 3328,
  "c:pra": 3329,
  "c:uri": 3330,
  "c:sel": 3331,
  "c:nd l": 3332,
  "c:ente": 3333,
  "c:e ca": 3334,
  "c:es s": 3335,
  "c:rote": 3336,
  "c:prote": 3337,
  "c:eb": 3338,
  "c: op": 3339,
  "c:gne": 3340,
  "c:cons": 3341,
  "c:nfo": 3342,
  "c:s st": 3343,
  "c:ats": 3344,
  "c:ience": 3345,
  "c: a g": 3346,
  "c:erin": 3347,
  "c:essi": 3348,
  "c:r re": 3349,
  "c:to m": 3350,
  "c:ping": 3351,
  "c: reg": 3352,
  "c:eath": 3353,
  "c: sl": 3354,
  "c:stin": 3355,
  "w:in_a": 3356,
  "c: conn": 3357,
  "w:plants": 3358,
  "c:al e": 3359,
  "c:cur": 3360,
  "c: go": 3361,
  "c:, re": 3362,
  "c:xpla": 3363,
  "c:expla": 3364,
  "c:cess ": 3365,
  "c:and w": 3366,
  "c:nge ": 3367,
  "c:soci": 3368,
  "c:trong": 3369,
  "c:l is ": 3370,
  "c:made ": 3371,
  "c:udy": 3372,
  "c:tudy": 3373,
  "c:study": 3374,
  "w:and_the": 3375,
  "c:e wi": 3376,
  "c: iden": 3377,
  "c:ehi": 3378,
  "c:nt,": 3379,
  "c:e fr": 3380,
  "c:ctic": 3381,
  "c:iver": 3382,
  "c: stro": 3383,
  "c:e con": 3384,
  "c:igi": 3385,
  "c:of s": 3386,
  "c: of s": 3387,
  "c:roa": 3388,
  "c:nt o": 3389,
  "c:ols": 3390,
  "c:ts i": 3391,
  "c:thou": 3392,
  "c:mode": 3393,
  "c:t he": 3394,
  "c:chi": 3395,
  "c:bet": 3396,
  "c:ise": 3397,
  "c:s, b": 3398,
  "c:g to": 3399,
  "c:of m": 3400,
  "c: of m": 3401,
  "c:ts ar": 3402,
  "c:press": 3403,
  "c: conc": 3404,
  "c:eff": 3405,
  "c:actic": 3406,
  "c: ec": 3407,
  "c:spi": 3408,
  "c: have": 3409,
  "c:ife ": 3410,
  "c: mad": 3411,
  "c: made": 3412,
  "c:ild": 3413,
  "c:ering": 3414,
  "c:ectr": 3415,
  "c: pat": 3416,
  "c:ik": 3417,
  "c:ard ": 3418,
  "c:a ma": 3419,
  "c:plo": 3420,
  "c:ct t": 3421,
  "c:vice ": 3422,
  "c:cros": 3423,
  "c:dist": 3424,
  "c: ri": 3425,
  "c:nt, ": 3426,
  "c:colo": 3427,
  "c:once": 3428,
  "c:f i": 3429,
  "c:nfor": 3430,
  "c: pra": 3431,
  "c:can b": 3432,
  "c: usi": 3433,
  "c: usin": 3434,
  "c:ng to": 3435,
  "c:ion t": 3436,
  "c:n l": 3437,
  "c:he o": 3438,
  "c:the o": 3439,
  "w:have": 3440,
  "c:r tha": 3441,
  "c:ness": 3442,
  "c:len": 3443,
  "c:is im": 3444,
  "c:char": 3445,
  "c:a v": 3446,
  "c:ross": 3447,
  "c:cross": 3448,
  "c:osit": 3449,
  "c: bet": 3450,
  "c:y h": 3451,
  "c:a la": 3452,
  "c: to p": 3453,
  "c:pea": 3454,
  "c:nd in": 3455,
  "c:lis": 3456,
  "c:t, a": 3457,
  "c:rim": 3458,
  "c:, g": 3459,
  "c:inst": 3460,
  "c:esen": 3461,
  "c:resen": 3462,
  "c:es in": 3463,
  "c:y, an": 3464,
  "c:wt": 3465,
  "c:and b": 3466,
  "c:chn": 3467,
  "c:ock": 3468,
  "c:ains": 3469,
  "c:tly": 3470,
  "c:ocus": 3471,
  "c: t ": 3472,
  "c:riv": 3473,
  "c:info": 3474,
  "c:wee": 3475,
  "c:e sh": 3476,
  "c:, whi": 3477,
  "w:using": 3478,
  "c:er an": 3479,
  "c:oss ": 3480,
  "c:dy o": 3481,
  "c:sef": 3482,
  "c:e di": 3483,
  "c:, pr": 3484,
  "c:vie": 3485,
  "c:a me": 3486,
  "c:ppe": 3487,
  "c:lectr": 3488,
  "c:ed c": 3489,
  "c:ue ": 3490,
  "c:stanc": 3491,
  "c:se o": 3492,
  "c:nvi": 3493,
  "w:made": 3494,
  "c:foc": 3495,
  "c:sefu": 3496,
  "c:seful": 3497,
  "c:ontr": 3498,
  "c:contr": 3499,
  "c:land": 3500,
  "c:he i": 3501,
  "c:d wi": 3502,
  "c:usef": 3503,
  "c:even": 3504,
  "c:n>": 3505,
  "c:ce is": 3506,
  "c:prac": 3507,
  "c:pract": 3508,
  "c: his": 3509,
  "c: star": 3510,
  "c:isms": 3511,
  "c:nisms": 3512,
  "c: shar": 3513,
  "c:<h": 3514,
  "c:bli": 3515,
  "c:wing ": 3516,
  "c:see": 3517,
  "c:eani": 3518,
  "c: hist": 3519,
  "c: usef": 3520,
  "c:usefu": 3521,
  "c:r v": 3522,
  "c:r or": 3523,
  "c:nes ": 3524,
  "c:cks": 3525,
  "c:hot": 3526,
  "c:y l": 3527,
  "w:is_important": 3528,
  "c:rmati": 3529,
  "c:erac": 3530,
  "c:terac": 3531,
  "c:t ma": 3532,
  "c:sts": 3533,
  "c:tures": 3534,
  "c: ci": 3535,
  "c:d of": 3536,
  "c:ans ": 3537,
  "c:life ": 3538,
  "c:ines": 3539,
  "c:tell": 3540,
  "c:ded ": 3541,
  "c:grow": 3542,
  "c:infor": 3543,
  "c:ora": 3544,
  "c:ibl": 3545,
  "c:en i": 3546,
  "c:g h": 3547,
  "c:re is": 3548,
  "c:eds": 3549,
  "c:nica": 3550,
  "c:ars ": 3551,
  "w:study": 3552,
  "c: a w": 3553,
  "c:ers,": 3554,
  "c:fec": 3555,
  "c: air": 3556,
  "c:e-": 3557,
  "c:vir": 3558,
  "c:dra": 3559,
  "c:emp": 3560,
  "c: bre": 3561,
  "c: spa": 3562,
  "c:movi": 3563,
  "c:m a": 3564,
  "c:nders": 3565,
  "c:egi": 3566,
  "c:and l": 3567,
  "w:life": 3568,
  "c:uses ": 3569,
  "c:the i": 3570,
  "c:ing c": 3571,
  "c:g, a": 3572,
  "c:a ca": 3573,
  "c:focu": 3574,
  "c:focus": 3575,
  "c:mals": 3576,
  "c:ear ": 3577,
  "c:main ": 3578,
  "c:ers, ": 3579,
  "c:els": 3580,
  "c:iro": 3581,
  "c:iron": 3582,
  "c:llo": 3583,
  "c: met": 3584,
  "c: ef": 3585,
  "c: eff": 3586,
  "c:wri": 3587,
  "c:oad": 3588,
  "c:hat s": 3589,
  "c:twe": 3590,
  "c:es f": 3591,
  "c:tabl": 3592,
  "c: way": 3593,
  "c:s. t": 3594,
  "c:diti": 3595,
  "c:t to ": 3596,
  "c:dir": 3597,
  "c:ike": 3598,
  "c:pet": 3599,
  "c: prac": 3600,
  "c:s, w": 3601,
  "c:fect": 3602,
  "c:ter,": 3603,
  "c:irds ": 3604,
  "c:way ": 3605,
  "c:cou": 3606,
  "c:s a l": 3607,
  "c:ter, ": 3608,
  "c:an be": 3609,
  "c:two": 3610,
  "c:ies,": 3611,
  "c:ing w": 3612,
  "c:mpr": 3613,
  "c:n co": 3614,
  "c:eful ": 3615,
  "c:whil": 3616,
  "c:hile": 3617,
  "c:while": 3618,
  "c:mou": 3619,
  "c: ref": 3620,
  "c:ram": 3621,
  "c:erst": 3622,
  "c:ted p": 3623,
  "c:dep": 3624,
  "c:ng h": 3625,
  "c:eav": 3626,
  "c:ity,": 3627,
  "c:ies, ": 3628,
  "c:d or": 3629,
  "c:nt t": 3630,
  "c:ible": 3631,
  "c: bra": 3632,
  "c:unc": 3633,
  "c:udy ": 3634,
  "c:tudy ": 3635,
  "c:ange ": 3636,
  "c:hile ": 3637,
  "w:while": 3638,
  "c:dd": 3639,
  "c:nee": 3640,
  "c:r mo": 3641,
  "c: char": 3642,
  "c:h c": 3643,
  "c:ed m": 3644,
  "c:on an": 3645,
  "c:re s": 3646,
  "c:ity, ": 3647,
  "c:l th": 3648,
  "c:er p": 3649,
  "c:o r": 3650,
  "c:g or ": 3651,
  "c: ru": 3652,
  "c:pers": 3653,
  "c:cel": 3654,
  "c: gra": 3655,
  "c:ous ": 3656,
  "c: cen": 3657,
  "c: eco": 3658,
  "c:ith a": 3659,
  "c:gener": 3660,
  "c:l in": 3661,
  "c: grow": 3662,
  "c:oin": 3663,
  "c: bl": 3664,
  "c:ed,": 3665,
  "c:ed, ": 3666,
  "c: to m": 3667,
  "c: mode": 3668,
  "c:th t": 3669,
  "c:rovi": 3670,
  "c:provi": 3671,
  "c:dy of": 3672,
  "c:for t": 3673,
  "c:onm": 3674,
  "c:onme": 3675,
  "c:niz": 3676,
  "c:e bo": 3677,
  "c:ed.>": 3678,
  "c:dig": 3679,
  "c: cent": 3680,
  "c:re.": 3681,
  "c:ng, a": 3682,
  "c:sure": 3683,
  "c:rge ": 3684,
  "c:he e": 3685,
  "c:r>": 3686,
  "c:olv": 3687,
  "c: whil": 3688,
  "c: elec": 3689,
  "c:ary ": 3690,
  "c:wer ": 3691,
  "c:enera": 3692,
  "c:playe": 3693,
  "c:ark": 3694,
  "c:the e": 3695,
  "c:derst": 3696,
  "c:er c": 3697,
  "c:clear": 3698,
  "c:tie": 3699,
  "c:llow": 3700,
  "c:yes.": 3701,
  "c:lti": 3702,
  "c:dri": 3703,
  "c:eed ": 3704,
  "c:hemi": 3705,
  "c:ature": 3706,
  "c:sms ": 3707,
  "c:he f": 3708,
  "c:the f": 3709,
  "c:e wa": 3710,
  "c:conce": 3711,
  "c: a n": 3712,
  "w:device": 3713,
  "c:suall": 3714,
  "c:rs.>": 3715,
  "c:ts an": 3716,
  "c: du": 3717,
  "c:nd pr": 3718,
  "c:at h": 3719,
  "c:or co": 3720,
  "c:r pr": 3721,
  "c:rop": 3722,
  "c:gre": 3723,
  "c:s, i": 3724,
  "c:ogy": 3725,
  "c:logy": 3726,
  "c:ural": 3727,
  "c:anin": 3728,
  "c:r h": 3729,
  "c:n be ": 3730,
  "c:lue": 3731,
  "c:esent": 3732,
  "c:, u": 3733,
  "c:rial ": 3734,
  "c:h the": 3735,
  "c: prov": 3736,
  "c:hy ": 3737,
  "c:posi": 3738,
  "c:rio": 3739,
  "c:ve a": 3740,
  "c:beh": 3741,
  "c: an o": 3742,
  "c:re c": 3743,
  "c:onmen": 3744,
  "c:ls.>": 3745,
  "c:ology": 3746,
  "c: or e": 3747,
  "c:nam": 3748,
  "c:o e": 3749,
  "c:or r": 3750,
  "w:birds": 3751,
  "c:he r": 3752,
  "c:the r": 3753,
  "c:e, o": 3754,
  "c:erent": 3755,
  "c:ics": 3756,
  "c:ict": 3757,
  "c:s li": 3758,
  "c:lev": 3759,
  "c:as a ": 3760,
  "c:<e": 3761,
  "c: bro": 3762,
  "c:cos": 3763,
  "c:a i": 3764,
  "c:pes": 3765,
  "c: nee": 3766,
  "c:need": 3767,
  "c: need": 3768,
  "c:env": 3769,
  "c:alle": 3770,
  "c: cons": 3771,
  "c:ntit": 3772,
  "c:acr": 3773,
  "w:useful": 3774,
  "c:nt is": 3775,
  "c:noth": 3776,
  "c:or th": 3777,
  "c:cap": 3778,
  "c: see": 3779,
  "c:hl": 3780,
  "c:usu": 3781,
  "c:usua": 3782,
  "c:usual": 3783,
  "c:nd ma": 3784,
  "c:<a b": 3785,
  "c: beh": 3786,
  "c:envi": 3787,
  "c:nvir": 3788,
  "c:viro": 3789,
  "c:ronm": 3790,
  "c:envir": 3791,
  "c:nviro": 3792,
  "c:viron": 3793,
  "c:ironm": 3794,
  "c:ronme": 3795,
  "c: dir": 3796,
  "c:arge ": 3797,
  "c:lt ": 3798,
  "c: clo": 3799,
  "c:g d": 3800,
  "c:k,": 3801,
  "c: ano": 3802,
  "c:nothe": 3803,
  "c: all": 3804,
  "c:stra": 3805,
  "c:al,": 3806,
  "c:brea": 3807,
  "c: or o": 3808,
  "w:can_be": 3809,
  "c:anot": 3810,
  "c:ity.": 3811,
  "c: anot": 3812,
  "c:anoth": 3813,
  "c: dist": 3814,
  "c:al, ": 3815,
  "c:posit": 3816,
  "c: wri": 3817,
  "c:s mo": 3818,
  "c:basi": 3819,
  "c:t pr": 3820,
  "c:ds.": 3821,
  "c:soun": 3822,
  "c:sound": 3823,
  "c:yt": 3824,
  "c:up ": 3825,
  "c:rni": 3826,
  "c:are i": 3827,
  "c:k, ": 3828,
  "c:ty.>": 3829,
  "c:twa": 3830,
  "c: coo": 3831,
  "c: env": 3832,
  "c:d>": 3833,
  "w:yes.": 3834,
  "c:, th": 3835,
  "c:l d": 3836,
  "c: acr": 3837,
  "c:ross ": 3838,
  "c:urn": 3839,
  "c:esp": 3840,
  "c:ntera": 3841,
  "c:m.": 3842,
  "c:<a p": 3843,
  "c:s a d": 3844,
  "c:tand": 3845,
  "c:stand": 3846,
  "c: a re": 3847,
  "c:cles": 3848,
  "c:eeds": 3849,
  "c:esse": 3850,
  "c: envi": 3851,
  "c:s he": 3852,
  "c:rld": 3853,
  "c:lc": 3854,
  "c:m s": 3855,
  "c:acro": 3856,
  "c:nds ": 3857,
  "c:veh": 3858,
  "c:vehi": 3859,
  "c:ehic": 3860,
  "c:hicl": 3861,
  "c:vehic": 3862,
  "c:ehicl": 3863,
  "c:hicle": 3864,
  "c:er b": 3865,
  "c:r st": 3866,
  "c: j": 3867,
  "c:t hel": 3868,
  "c: acro": 3869,
  "c:l be": 3870,
  "c:ick": 3871,
  "c:s ho": 3872,
  "c:g and": 3873,
  "c:of p": 3874,
  "c: of p": 3875,
  "c:pow": 3876,
  "c:al r": 3877,
  "c:d ca": 3878,
  "c:orl": 3879,
  "c:mmu": 3880,
  "c:a pr": 3881,
  "c:try ": 3882,
  "c:, mo": 3883,
  "c:on s": 3884,
  "c:or f": 3885,
  "c:chem": 3886,
  "c:eract": 3887,
  "c:reco": 3888,
  "c:led": 3889,
  "c:til": 3890,
  "c:d g": 3891,
  "c: foc": 3892,
  "c:face ": 3893,
  "c:er s": 3894,
  "c:acros": 3895,
  "w:across": 3896,
  "c: movi": 3897,
  "c:siti": 3898,
  "c:ect t": 3899,
  "w:studio": 3900,
  "c:writ": 3901,
  "c:ol ": 3902,
  "c:lowe": 3903,
  "c:onl": 3904,
  "c:tle": 3905,
  "c: basi": 3906,
  "c:at a ": 3907,
  "c:nces": 3908,
  "c:ital": 3909,
  "c:eanin": 3910,
  "c:aning": 3911,
  "c:<co": 3912,
  "c:activ": 3913,
  "c:rest": 3914,
  "c:ovid": 3915,
  "c:rovid": 3916,
  "c:ues": 3917,
  "c: info": 3918,
  "c:l co": 3919,
  "c:ce th": 3920,
  "w:but": 3921,
  "c:uti": 3922,
  "c:sub": 3923,
  "w:is_important_because": 3924,
  "c: a ba": 3925,
  "c:ffec": 3926,
  "c:ffect": 3927,
  "c:e for": 3928,
  "c:yl": 3929,
  "c:rns": 3930,
  "c:but ": 3931,
  "c: but ": 3932,
  "c:s, f": 3933,
  "c:ras": 3934,
  "c:hat h": 3935,
  "c:ons,": 3936,
  "c:k is": 3937,
  "c:ory i": 3938,
  "c:worl": 3939,
  "c:orld": 3940,
  "c:world": 3941,
  "c:iat": 3942,
  "c:umb": 3943,
  "c:vent": 3944,
  "c:r g": 3945,
  "c:mbe": 3946,
  "c:me.": 3947,
  "c:otec": 3948,
  "c:xplo": 3949,
  "c:explo": 3950,
  "c: at ": 3951,
  "c:lik": 3952,
  "c:like": 3953,
  "c:n n": 3954,
  "c: cn": 3955,
  "c:re o": 3956,
  "c:ulti": 3957,
  "c:rotec": 3958,
  "c:otect": 3959,
  "c:chemi": 3960,
  "c:re u": 3961,
  "c:sh ": 3962,
  "w:terms,_a": 3963,
  "w:simple_terms,_a": 3964,
  "c: focu": 3965,
  "c:ons, ": 3966,
  "c: thin": 3967,
  "c:nform": 3968,
  "c:s fro": 3969,
  "c:table": 3970,
  "c:powe": 3971,
  "c:power": 3972,
  "c:mes ": 3973,
  "c:velo": 3974,
  "c:lay ": 3975,
  "c:ming ": 3976,
  "c:ely ": 3977,
  "w:light": 3978,
  "c:visi": 3979,
  "c:tif": 3980,
  "c: reco": 3981,
  "c: ver": 3982,
  "w:large": 3983,
  "c:e wh": 3984,
  "c:ftw": 3985,
  "c:t, an": 3986,
  "c: dig": 3987,
  "c:tura": 3988,
  "c:ry is": 3989,
  "c:e unl": 3990,
  "c: abi": 3991,
  "c:move ": 3992,
  "c:ocia": 3993,
  "c:socia": 3994,
  "c:c c": 3995,
  "c:al o": 3996,
  "c: af": 3997,
  "c:ins ": 3998,
  "c: nd": 3999,
  "c:ubl": 4000,
  "c: a ma": 4001,
  "c:k is ": 4002,
  "c:pace": 4003,
  "c: abil": 4004,
  "c:mma": 4005,
  "c:g, an": 4006,
  "c:s. th": 4007,
  "c:ipl": 4008,
  "c:r a ": 4009,
  "c:f l": 4010,
  "w:to_the": 4011,
  "c:rsi": 4012,
  "c:ing b": 4013,
  "c:she": 4014,
  "c:rav": 4015,
  "w:system": 4016,
  "c:a de": 4017,
  "c: pho": 4018,
  "c:es h": 4019,
  "c:mun": 4020,
  "c:asic": 4021,
  "c:basic": 4022,
  "c:ent,": 4023,
  "c:phe": 4024,
  "c:uild": 4025,
  "c:build": 4026,
  "c:ce of": 4027,
  "c:stat": 4028,
  "c:oto": 4029,
  "c: am": 4030,
  "c:g a ": 4031,
  "c:ng a ": 4032,
  "c:tric": 4033,
  "c:a pl": 4034,
  "c:ommu": 4035,
  "c:commu": 4036,
  "c:cit": 4037,
  "c:pe ": 4038,
  "c:ls a": 4039,
  "c:make ": 4040,
  "w:make": 4041,
  "c: set": 4042,
  "c:ditio": 4043,
  "c:r n": 4044,
  "c:e li": 4045,
  "c:sf": 4046,
  "c:ent, ": 4047,
  "c:ly.": 4048,
  "c:s int": 4049,
  "c:n ma": 4050,
  "c:a is": 4051,
  "c:ng d": 4052,
  "c:he un": 4053,
  "c:ntro": 4054,
  "c:mmun": 4055,
  "c:urv": 4056,
  "c:abo": 4057,
  "c:in i": 4058,
  "c:ubli": 4059,
  "c:ntra": 4060,
  "c:d so": 4061,
  "c:nts,": 4062,
  "c: flow": 4063,
  "c:lve": 4064,
  "c:aves": 4065,
  "c:acte": 4066,
  "c:moo": 4067,
  "c:<l": 4068,
  "c:ows ": 4069,
  "c: har": 4070,
  "c: usu": 4071,
  "c: usua": 4072,
  "c:ular": 4073,
  "w:process": 4074,
  "c:mber": 4075,
  "c: or m": 4076,
  "w:over": 4077,
  "w:insects": 4078,
  "c:fla": 4079,
  "c:ease": 4080,
  "c:sid": 4081,
  "c:ssio": 4082,
  "c:ssion": 4083,
  "c: a la": 4084,
  "c:pub": 4085,
  "c:publ": 4086,
  "c:publi": 4087,
  "c: soun": 4088,
  "c:nt s": 4089,
  "c:h m": 4090,
  "c:he t": 4091,
  "c:the t": 4092,
  "c:ings ": 4093,
  "c:viv": 4094,
  "c: colo": 4095,
  "c:boo": 4096,
  "c:ivin": 4097,
  "c:iving": 4098,
  "c:o pr": 4099,
  "c:nts, ": 4100,
  "c:game ": 4101,
  "c:side": 4102,
  "c:isms ": 4103,
  "c:train": 4104,
  "c:mt": 4105,
  "c:git": 4106,
  "c:sph": 4107,
  "c:spac": 4108,
  "c:ates ": 4109,
  "c:perf": 4110,
  "c:l an": 4111,
  "c:is us": 4112,
  "c:ead ": 4113,
  "c:aft": 4114,
  "c:ing h": 4115,
  "c:shor": 4116,
  "c:el,": 4117,
  "c:<g": 4118,
  "c:ts s": 4119,
  "c:ada": 4120,
  "c:ttern": 4121,
  "c:ersi": 4122,
  "c:oot": 4123,
  "c: sub": 4124,
  "c:el, ": 4125,
  "c:show": 4126,
  "c: show": 4127,
  "c: writ": 4128,
  "c:fra": 4129,
  "c:very": 4130,
  "c:patt": 4131,
  "c:patte": 4132,
  "c:cing": 4133,
  "c:nd st": 4134,
  "c:ker": 4135,
  "w:basic": 4136,
  "c:dire": 4137,
  "c:irec": 4138,
  "c:direc": 4139,
  "c:irect": 4140,
  "c:fun": 4141,
  "c:eativ": 4142,
  "c:mult": 4143,
  "c:ees": 4144,
  "c:is h": 4145,
  "c: or d": 4146,
  "c:arn": 4147,
  "c:cy ": 4148,
  "c:es, o": 4149,
  "w:organisms": 4150,
  "w:objects": 4151,
  "c:to r": 4152,
  "c:pri": 4153,
  "c:at t": 4154,
  "c:a is ": 4155,
  "c:ds a": 4156,
  "c:ger ": 4157,
  "c:asic ": 4158,
  "c:ntal": 4159,
  "c:multi": 4160,
  "w:usually": 4161,
  "w:different": 4162,
  "c: mot": 4163,
  "c:isio": 4164,
  "c:ision": 4165,
  "c: win": 4166,
  "c:d v": 4167,
  "c:ule": 4168,
  "c:n ar": 4169,
  "c:come": 4170,
  "c:live": 4171,
  "c:book": 4172,
  "c:t in ": 4173,
  "c:sm ": 4174,
  "c:ible ": 4175,
  "c:sed o": 4176,
  "c:pend": 4177,
  "c:t st": 4178,
  "c:a pla": 4179,
  "c: veh": 4180,
  "c: vehi": 4181,
  "w:because_they": 4182,
  "c:yp": 4183,
  "c:tural": 4184,
  "c:ods": 4185,
  "c:betw": 4186,
  "c:etwe": 4187,
  "c:twee": 4188,
  "c:ween": 4189,
  "c:betwe": 4190,
  "c:etwee": 4191,
  "c:tween": 4192,
  "c:cond": 4193,
  "c:ysica": 4194,
  "c:muni": 4195,
  "c:inin": 4196,
  "c:ining": 4197,
  "c:t con": 4198,
  "c:d wit": 4199,
  "w:images": 4200,
  "c:plor": 4201,
  "c:xplor": 4202,
  "c:ent i": 4203,
  "c:dec": 4204,
  "c:bou": 4205,
  "c:lower": 4206,
  "c:hort": 4207,
  "c: shor": 4208,
  "c:short": 4209,
  "c: a me": 4210,
  "c:arac": 4211,
  "c:h is": 4212,
  "c:lop": 4213,
  "c:rs b": 4214,
  "w:material": 4215,
  "c:xe": 4216,
  "c: worl": 4217,
  "c:s on ": 4218,
  "c:ital ": 4219,
  "c:twar": 4220,
  "c:l l": 4221,
  "c:pher": 4222,
  "c:sty": 4223,
  "c:arm": 4224,
  "c:rap": 4225,
  "c:lic ": 4226,
  "c:oni": 4227,
  "c:mmuni": 4228,
  "c:cter": 4229,
  "c:acter": 4230,
  "c:to e": 4231,
  "c:elli": 4232,
  "c:space": 4233,
  "c: betw": 4234,
  "c:ommun": 4235,
  "c:td": 4236,
  "c:o f": 4237,
  "c:tate": 4238,
  "c:ools": 4239,
  "c:ges,": 4240,
  "c:unit": 4241,
  "c:t or ": 4242,
  "c:o re": 4243,
  "c:road": 4244,
  "w:between": 4245,
  "c: patt": 4246,
  "c:he d": 4247,
  "c:ges, ": 4248,
  "c:eathe": 4249,
  "c:sea": 4250,
  "c:smp": 4251,
  "c:blic": 4252,
  "c:ublic": 4253,
  "c:oca": 4254,
  "c:lem": 4255,
  "c: to r": 4256,
  "c:imi": 4257,
  "c:il ": 4258,
  "c:mal ": 4259,
  "c:en a": 4260,
  "c:ween ": 4261,
  "c:ors ": 4262,
  "c:f c": 4263,
  "c:e pa": 4264,
  "c:olle": 4265,
  "c:rient": 4266,
  "c:ngi": 4267,
  "c:num": 4268,
  "c:cle ": 4269,
  "c:e, or": 4270,
  "c:ct th": 4271,
  "c:hout": 4272,
  "c:x ": 4273,
  "c:urr": 4274,
  "c:smpl": 4275,
  "c:rime": 4276,
  "c:udy o": 4277,
  "w:the_study": 4278,
  "c:s how": 4279,
  "c:mbi": 4280,
  "c:lling": 4281,
  "c:oftw": 4282,
  "c:ftwa": 4283,
  "c:softw": 4284,
  "c:oftwa": 4285,
  "c:ftwar": 4286,
  "c:tware": 4287,
  "c:erc": 4288,
  "c:los": 4289,
  "c: spo": 4290,
  "c:ts c": 4291,
  "c:dom": 4292,
  "c:trol": 4293,
  "c:bin": 4294,
  "c:s a r": 4295,
  "c:eha": 4296,
  "c:y re": 4297,
  "c:sun": 4298,
  "c: pow": 4299,
  "c:jo": 4300,
  "c:m o": 4301,
  "c:tity": 4302,
  "c:ntity": 4303,
  "c:nce i": 4304,
  "c:t us": 4305,
  "c:ncep": 4306,
  "c:oncep": 4307,
  "c:ncept": 4308,
  "c:nts.": 4309,
  "c:ed pr": 4310,
  "c:d mo": 4311,
  "c:is c": 4312,
  "c:efe": 4313,
  "c:beha": 4314,
  "c:lth": 4315,
  "c:lane": 4316,
  "c:hout ": 4317,
  "c:igne": 4318,
  "c:yes. ": 4319,
  "c:d con": 4320,
  "c: a v": 4321,
  "c:trie": 4322,
  "c:ental": 4323,
  "c:adi": 4324,
  "c:the d": 4325,
  "c:bran": 4326,
  "c:ehav": 4327,
  "c:behav": 4328,
  "c:h is ": 4329,
  "c:<yes.": 4330,
  "c: spac": 4331,
  "c:hol": 4332,
  "c:alu": 4333,
  "c:rfo": 4334,
  "c:erfo": 4335,
  "c: nam": 4336,
  "c:ix": 4337,
  "c:ms.": 4338,
  "c: dep": 4339,
  "c:cts a": 4340,
  "c:d de": 4341,
  "c:s, d": 4342,
  "c:t can": 4343,
  "c:ural ": 4344,
  "c: smp": 4345,
  "c: smpl": 4346,
  "c:d us": 4347,
  "c: beha": 4348,
  "c: inst": 4349,
  "c:pas": 4350,
  "c:th a ": 4351,
  "c:r, a": 4352,
  "c: land": 4353,
  "c:elop": 4354,
  "c:velop": 4355,
  "w:work": 4356,
  "c:ncti": 4357,
  "c:t n": 4358,
  "c:t su": 4359,
  "c:a sm": 4360,
  "c:titi": 4361,
  "c:, v": 4362,
  "c:es m": 4363,
  "c: perf": 4364,
  "c:ping ": 4365,
  "c:hon": 4366,
  "c:ces.": 4367,
  "c:vity": 4368,
  "c:each": 4369,
  "c:deve": 4370,
  "c:devel": 4371,
  "c:evelo": 4372,
  "c:e, s": 4373,
  "c: gl": 4374,
  "c:t v": 4375,
  "c:t sh": 4376,
  "c:sib": 4377,
  "c:dea ": 4378,
  "c:idea ": 4379,
  "w:idea": 4380,
  "w:game": 4381,
  "c: dire": 4382,
  "c:rang": 4383,
  "c:var": 4384,
  "c: fun": 4385,
  "c:medi": 4386,
  "c: mul": 4387,
  "c: mult": 4388,
  "w:study_of": 4389,
  "c:some ": 4390,
  "c:wth": 4391,
  "c:so ": 4392,
  "c:d ar": 4393,
  "c:ve t": 4394,
  "c:h.": 4395,
  "c:surv": 4396,
  "c:om t": 4397,
  "c:orm ": 4398,
  "c:owi": 4399,
  "c:owin": 4400,
  "c:owing": 4401,
  "c:yn": 4402,
  "c:epen": 4403,
  "w:support": 4404,
  "c:wea": 4405,
  "c:appe": 4406,
  "c:lie": 4407,
  "c: or i": 4408,
  "c:-s": 4409,
  "c:s thr": 4410,
  "c:ositi": 4411,
  "c:aki": 4412,
  "c:akin": 4413,
  "c:aking": 4414,
  "c:en t": 4415,
  "c: pub": 4416,
  "c: publ": 4417,
  "c: a mo": 4418,
  "c:ers t": 4419,
  "c: tex": 4420,
  "c: text": 4421,
  "c: nat": 4422,
  "c:plane": 4423,
  "c:ler": 4424,
  "c:ly a": 4425,
  "c:<v": 4426,
  "c:n re": 4427,
  "c:valu": 4428,
  "c:perfo": 4429,
  "c:hum": 4430,
  "c:urvi": 4431,
  "c:rviv": 4432,
  "c:survi": 4433,
  "c:urviv": 4434,
  "c:ers a": 4435,
  "c:racte": 4436,
  "c:ted a": 4437,
  "c: powe": 4438,
  "c:odel": 4439,
  "c:model": 4440,
  "c:e im": 4441,
  "c:of i": 4442,
  "c:al.": 4443,
  "c:tech": 4444,
  "c:call": 4445,
  "c:gned": 4446,
  "c:igned": 4447,
  "c:hara": 4448,
  "c:erim": 4449,
  "c:perim": 4450,
  "c:erime": 4451,
  "c: of i": 4452,
  "c:uid": 4453,
  "c:fici": 4454,
  "c: a sm": 4455,
  "c:ntin": 4456,
  "c:oge": 4457,
  "c: val": 4458,
  "c:ett": 4459,
  "c:ogr": 4460,
  "c:rfor": 4461,
  "c:erfor": 4462,
  "c:rform": 4463,
  "c:ered": 4464,
  "c:e fro": 4465,
  "c:d'": 4466,
  "c:d's": 4467,
  "c:ging": 4468,
  "c:a sma": 4469,
  "c:d be": 4470,
  "c:hem ": 4471,
  "c:them ": 4472,
  "c:aint": 4473,
  "c:range": 4474,
  "c:rack": 4475,
  "c:rimen": 4476,
  "c:r tr": 4477,
  "c:ity.>": 4478,
  "c:ware ": 4479,
  "c:are a": 4480,
  "c: surv": 4481,
  "c:n g": 4482,
  "w:with_a": 4483,
  "c:re.>": 4484,
  "c:ontro": 4485,
  "c:ntrol": 4486,
  "c:, com": 4487,
  "c: lon": 4488,
  "c: even": 4489,
  "c:ic c": 4490,
  "c:oup": 4491,
  "c:n s ": 4492,
  "c: deve": 4493,
  "c:tors": 4494,
  "c:heat": 4495,
  "c:s ha": 4496,
  "c:ers.": 4497,
  "c:fore": 4498,
  "c:tip": 4499,
  "c:ulati": 4500,
  "c:nce.": 4501,
  "c:cov": 4502,
  "c:d's ": 4503,
  "c:are u": 4504,
  "c:ior": 4505,
  "w:them": 4506,
  "c: tec": 4507,
  "c:udes": 4508,
  "c:chara": 4509,
  "c:harac": 4510,
  "c:aract": 4511,
  "c:sca": 4512,
  "c:ink": 4513,
  "c: stat": 4514,
  "c:g e": 4515,
  "c:ng e": 4516,
  "w:move": 4517,
  "c:als,": 4518,
  "w:some": 4519,
  "c: long": 4520,
  "c:arts": 4521,
  "c:ats ": 4522,
  "c:a com": 4523,
  "c:pera": 4524,
  "c:gned ": 4525,
  "c:rks": 4526,
  "c:tht": 4527,
  "c:t wi": 4528,
  "c:icati": 4529,
  "c:rem": 4530,
  "c:leve": 4531,
  "c:depe": 4532,
  "c:depen": 4533,
  "c:epend": 4534,
  "c:osp": 4535,
  "c:ions,": 4536,
  "c:duce ": 4537,
  "c:cke": 4538,
  "c:cove": 4539,
  "c:cover": 4540,
  "w:the_study_of": 4541,
  "c:itin": 4542,
  "c:als, ": 4543,
  "c: ser": 4544,
  "c: num": 4545,
  "c: au": 4546,
  "c:air ": 4547,
  "c:signe": 4548,
  "c:sphe": 4549,
  "c:spher": 4550,
  "c:onta": 4551,
  "c:bio": 4552,
  "c:unic": 4553,
  "c:iting": 4554,
  "w:physical": 4555,
  "c:roo": 4556,
  "c:erati": 4557,
  "c:<a m": 4558,
  "c:tea": 4559,
  "c:ense": 4560,
  "c: cou": 4561,
  "c:nut": 4562,
  "c:rna": 4563,
  "c:r to": 4564,
  "c:d or ": 4565,
  "w:ability": 4566,
  "c:eans": 4567,
  "c:y in ": 4568,
  "c:my": 4569,
  "c: sk": 4570,
  "c:wn f": 4571,
  "c:a lar": 4572,
  "c:digi": 4573,
  "c:igit": 4574,
  "c:digit": 4575,
  "c:riti": 4576,
  "c:nd u": 4577,
  "c:tools": 4578,
  "c:bot": 4579,
  "c:t. ": 4580,
  "c:re th": 4581,
  "c:he g": 4582,
  "c:the g": 4583,
  "c:le a": 4584,
  "c: an e": 4585,
  "c:ludes": 4586,
  "c:ty t": 4587,
  "c:ltip": 4588,
  "c:ultip": 4589,
  "c:rive": 4590,
  "c:ept ": 4591,
  "c:iva": 4592,
  "c:or l": 4593,
  "c:le is": 4594,
  "c:perat": 4595,
  "c:m.>": 4596,
  "c: var": 4597,
  "c:dia": 4598,
  "c:epro": 4599,
  "c:repro": 4600,
  "c:lls ": 4601,
  "c:e wit": 4602,
  "c:nve": 4603,
  "c:r ca": 4604,
  "c:e id": 4605,
  "c:e ide": 4606,
  "c: is c": 4607,
  "c:orms": 4608,
  "c:ty o": 4609,
  "c:n pr": 4610,
  "c: cap": 4611,
  "c:ches": 4612,
  "c:lated": 4613,
  "c:ms a": 4614,
  "c:e ab": 4615,
  "c: ope": 4616,
  "c:cli": 4617,
  "c: pers": 4618,
  "c: sun": 4619,
  "c:ties": 4620,
  "w:includes": 4621,
  "c:b ": 4622,
  "c:entit": 4623,
  "c:ds.>": 4624,
  "c:tipl": 4625,
  "c:ltipl": 4626,
  "c:eprod": 4627,
  "c:level": 4628,
  "c:erie": 4629,
  "c:f e": 4630,
  "c:al m": 4631,
  "c:nown": 4632,
  "c:known": 4633,
  "c:rro": 4634,
  "c:ilm": 4635,
  "c:film": 4636,
  "c:lore": 4637,
  "c:to f": 4638,
  "c:l and": 4639,
  "c:cuse": 4640,
  "c:le s": 4641,
  "c:y u": 4642,
  "c:r or ": 4643,
  "c:form ": 4644,
  "c:ume": 4645,
  "c:imat": 4646,
  "c:peti": 4647,
  "c:a,": 4648,
  "c:a, ": 4649,
  "c:y st": 4650,
  "c:reac": 4651,
  "c:ure,": 4652,
  "c:ure, ": 4653,
  "c:of l": 4654,
  "c: of l": 4655,
  "w:way": 4656,
  "c: wha": 4657,
  "c:er w": 4658,
  "c:se of": 4659,
  "c:orc": 4660,
  "c:rom t": 4661,
  "w:nd": 4662,
  "c:n ins": 4663,
  "c:typ": 4664,
  "c:me.>": 4665,
  "c: brea": 4666,
  "c:les.": 4667,
  "c:poi": 4668,
  "c:ly t": 4669,
  "c:of e": 4670,
  "c: of e": 4671,
  "c:ocuse": 4672,
  "c:amm": 4673,
  "c:itho": 4674,
  "c:ft ": 4675,
  "c:er m": 4676,
  "c: sen": 4677,
  "c:gita": 4678,
  "c:igita": 4679,
  "c:gital": 4680,
  "c:imals": 4681,
  "c:vio": 4682,
  "c:nown ": 4683,
  "c:aniz": 4684,
  "c:udes ": 4685,
  "c:d wa": 4686,
  "c: boo": 4687,
  "c:aci": 4688,
  "c:t-": 4689,
  "c:ular ": 4690,
  "c:zed": 4691,
  "c:e so": 4692,
  "c:witho": 4693,
  "c:ithou": 4694,
  "c:thout": 4695,
  "w:without": 4696,
  "c:cell": 4697,
  "w:designed": 4698,
  "c:versi": 4699,
  "c:ized": 4700,
  "c:in p": 4701,
  "c:rre": 4702,
  "c:teg": 4703,
  "c:ms s": 4704,
  "c:o l": 4705,
  "c: loc": 4706,
  "c:pti": 4707,
  "c:elin": 4708,
  "c:hip": 4709,
  "c:c l": 4710,
  "c:carr": 4711,
  "c:cien": 4712,
  "c:ose ": 4713,
  "c:hs": 4714,
  "w:tht": 4715,
  "c: book": 4716,
  "c:state": 4717,
  "c:ensi": 4718,
  "c:o pro": 4719,
  "c: dra": 4720,
  "c:dap": 4721,
  "c:adap": 4722,
  "c:dapt": 4723,
  "c:adapt": 4724,
  "c:p i": 4725,
  "c:tori": 4726,
  "c:ge i": 4727,
  "c: or r": 4728,
  "c:t wit": 4729,
  "c:area": 4730,
  "c:h w": 4731,
  "c:chin": 4732,
  "c:ry in": 4733,
  "c:is s": 4734,
  "c:ores ": 4735,
  "c:l tr": 4736,
  "c:ase ": 4737,
  "c:ris": 4738,
  "c: fin": 4739,
  "c: reac": 4740,
  "c:amin": 4741,
  "c:gio": 4742,
  "c: way ": 4743,
  "c:cis": 4744,
  "c:base": 4745,
  "c:ganiz": 4746,
  "c:utr": 4747,
  "c:real": 4748,
  "c:nges": 4749,
  "c:to re": 4750,
  "c:hone": 4751,
  "c: lev": 4752,
  "c: leve": 4753,
  "c: pos": 4754,
  "c:at is": 4755,
  "c:a so": 4756,
  "c:event": 4757,
  "c:ein": 4758,
  "c:cles ": 4759,
  "c:her t": 4760,
  "c:pred": 4761,
  "c:<o": 4762,
  "c:telli": 4763,
  "c:onte": 4764,
  "c:ages,": 4765,
  "c:havi": 4766,
  "c:only": 4767,
  "c: carr": 4768,
  "w:at_a": 4769,
  "c:prt": 4770,
  "c: es": 4771,
  "c:etit": 4772,
  "c:petit": 4773,
  "c:rs to": 4774,
  "c:eas ": 4775,
  "c:sting": 4776,
  "c:elate": 4777,
  "c:e sp": 4778,
  "c: cond": 4779,
  "c: dec": 4780,
  "c: bran": 4781,
  "c: a pl": 4782,
  "c: pas": 4783,
  "c:ike ": 4784,
  "c:s si": 4785,
  "c: film": 4786,
  "c:ntal ": 4787,
  "c: tht": 4788,
  "c:e gr": 4789,
  "c:sitio": 4790,
  "c:d su": 4791,
  "c:ivers": 4792,
  "c:oint": 4793,
  "c:rsta": 4794,
  "c:ersta": 4795,
  "c:kes": 4796,
  "c:fea": 4797,
  "w:main": 4798,
  "c:own f": 4799,
  "w:known": 4800,
  "c:echn": 4801,
  "c:he l": 4802,
  "c:techn": 4803,
  "c:the l": 4804,
  "c:s whe": 4805,
  "c:za": 4806,
  "c:ack ": 4807,
  "c:entr": 4808,
  "c:s, r": 4809,
  "c:ethe": 4810,
  "c:ether": 4811,
  "c:orts": 4812,
  "c: area": 4813,
  "c:tas": 4814,
  "c:n wh": 4815,
  "c:urc": 4816,
  "c: a de": 4817,
  "c:conte": 4818,
  "c: ada": 4819,
  "c: adap": 4820,
  "c:ed wi": 4821,
  "c:al.>": 4822,
  "c:l re": 4823,
  "c:n, s": 4824,
  "c:mis": 4825,
  "c:ansp": 4826,
  "c:only ": 4827,
  "c:ransp": 4828,
  "c:m the": 4829,
  "c:l pr": 4830,
  "c:ne i": 4831,
  "c:o b": 4832,
  "c:is o": 4833,
  "c:of c": 4834,
  "c: of c": 4835,
  "c:n. ": 4836,
  "c:rong ": 4837,
  "c:al f": 4838,
  "c:fli": 4839,
  "c:stic": 4840,
  "c:c s": 4841,
  "c: to e": 4842,
  "c:stre": 4843,
  "c:s a f": 4844,
  "c:or re": 4845,
  "c: sol": 4846,
  "c:orie": 4847,
  "c:ds o": 4848,
  "c:bea": 4849,
  "c:parts": 4850,
  "c:ts in": 4851,
  "c:wn fo": 4852,
  "c:roup": 4853,
  "c:group": 4854,
  "c:n to": 4855,
  "c:odi": 4856,
  "c:uter": 4857,
  "c:o h": 4858,
  "c: rat": 4859,
  "c:liz": 4860,
  "c:in w": 4861,
  "c:me i": 4862,
  "c:ns t": 4863,
  "c:act ": 4864,
  "c:ices": 4865,
  "c:aro": 4866,
  "c:les a": 4867,
  "c:n or ": 4868,
  "c:tyl": 4869,
  "c:ted w": 4870,
  "c:tp": 4871,
  "c:ship": 4872,
  "c:er or": 4873,
  "c:mil": 4874,
  "c:sses": 4875,
  "c:a sp": 4876,
  "c:ly.>": 4877,
  "c:hab": 4878,
  "c:tters": 4879,
  "c:ure i": 4880,
  "c: digi": 4881,
  "c:is m": 4882,
  "c:tog": 4883,
  "c:bc": 4884,
  "c:es or": 4885,
  "c:y fo": 4886,
  "c:rse": 4887,
  "c:inv": 4888,
  "c:rig": 4889,
  "c:rstan": 4890,
  "c:it s": 4891,
  "c:yc": 4892,
  "c:<n ": 4893,
  "c:ve s": 4894,
  "c:t for": 4895,
  "c:osph": 4896,
  "c:inati": 4897,
  "c:styl": 4898,
  "c:sour": 4899,
  "c:mpu": 4900,
  "c:vor": 4901,
  "c: dri": 4902,
  "c:tter ": 4903,
  "c:urin": 4904,
  "c:avio": 4905,
  "c:or b": 4906,
  "c:in f": 4907,
  "c:om th": 4908,
  "c:e ar": 4909,
  "c:tly ": 4910,
  "c:ures ": 4911,
  "w:digital": 4912,
  "c:ym": 4913,
  "c:etic": 4914,
  "w:movement": 4915,
  "c:munic": 4916,
  "c:e ch": 4917,
  "c:gt": 4918,
  "c:ast ": 4919,
  "c:e en": 4920,
  "c:bac": 4921,
  "c:cing ": 4922,
  "c: ag": 4923,
  "c:siz": 4924,
  "c:ward": 4925,
  "c: nut": 4926,
  "c:conta": 4927,
  "w:history": 4928,
  "c: fla": 4929,
  "c:ons a": 4930,
  "c:nt a": 4931,
  "c:s v": 4932,
  "c:s hel": 4933,
  "c:isti": 4934,
  "c:a bas": 4935,
  "c: chem": 4936,
  "c:l st": 4937,
  "c:ala": 4938,
  "c:alth": 4939,
  "c:sist": 4940,
  "c:rt i": 4941,
  "c:, tr": 4942,
  "c:es p": 4943,
  "c:ltu": 4944,
  "c:ultu": 4945,
  "c:ltur": 4946,
  "c:ultur": 4947,
  "c:ity t": 4948,
  "c:tht ": 4949,
  "c:. thi": 4950,
  "c: to f": 4951,
  "c:iq": 4952,
  "c:iqu": 4953,
  "c:unica": 4954,
  "c:nicat": 4955,
  "w:public": 4956,
  "c:ppl": 4957,
  "c: tech": 4958,
  "c:coll": 4959,
  "c:itat": 4960,
  "c:r fo": 4961,
  "c:ing e": 4962,
  "c:, bu": 4963,
  "c:s con": 4964,
  "c:blic ": 4965,
  "w:a_small": 4966,
  "c:t g": 4967,
  "c:edu": 4968,
  "c:vel,": 4969,
  "c:vel, ": 4970,
  "c:olor": 4971,
  "c:color": 4972,
  "c:track": 4973,
  "c:d ex": 4974,
  "c: live": 4975,
  "c:ece": 4976,
  "c:hm": 4977,
  "c:bee": 4978,
  "c:aces": 4979,
  "w:as_a": 4980,
  "c:spr": 4981,
  "c:zed ": 4982,
  "c:nt of": 4983,
  "c:numb": 4984,
  "c:at ca": 4985,
  "w:is_that": 4986,
  "c: ty": 4987,
  "c:ehavi": 4988,
  "c:ster": 4989,
  "c:al in": 4990,
  "c:ncy": 4991,
  "c:habi": 4992,
  "c:abit": 4993,
  "c:habit": 4994,
  "c:c,": 4995,
  "c:ever": 4996,
  "c:, ca": 4997,
  "w:systems": 4998,
  "c:ized ": 4999,
  "c:meth": 5000,
  "c:ask": 5001,
  "c:vior": 5002,
  "c:havio": 5003,
  "c:avior": 5004,
  "c:leav": 5005,
  "c:ies.": 5006,
  "c:ter i": 5007,
  "c:<a t": 5008,
  "c:vari": 5009,
  "c:ourc": 5010,
  "c:urce": 5011,
  "c:sourc": 5012,
  "c:ource": 5013,
  "c:th,": 5014,
  "c:rve": 5015,
  "c:ealt": 5016,
  "c:ealth": 5017,
  "c:ista": 5018,
  "c:ressi": 5019,
  "c:uen": 5020,
  "c:city": 5021,
  "c:forms": 5022,
  "c: oc": 5023,
  "c:f f": 5024,
  "c:ted.": 5025,
  "c:sts ": 5026,
  "c:y co": 5027,
  "c:omb": 5028,
  "c:es w": 5029,
  "c:ent o": 5030,
  "c:oth ": 5031,
  "c:y n": 5032,
  "c:entra": 5033,
  "c:a bo": 5034,
  "c:ered ": 5035,
  "c: numb": 5036,
  "c:ecos": 5037,
  "c:cosy": 5038,
  "c:osys": 5039,
  "c:ecosy": 5040,
  "c:cosys": 5041,
  "c:osyst": 5042,
  "c:ngin": 5043,
  "c:pul": 5044,
  "c:heal": 5045,
  "c:for a": 5046,
  "c: coll": 5047,
  "c:<a r": 5048,
  "c:d se": 5049,
  "c:h f": 5050,
  "c:ports": 5051,
  "c:ovide": 5052,
  "c:ompu": 5053,
  "c:mput": 5054,
  "c:compu": 5055,
  "c:omput": 5056,
  "c: inv": 5057,
  "c:t ex": 5058,
  "c:natu": 5059,
  "c:natur": 5060,
  "c:gs,": 5061,
  "w:art": 5062,
  "c:s pro": 5063,
  "c: pred": 5064,
  "c:g fo": 5065,
  "c:in m": 5066,
  "c:th, ": 5067,
  "c:cted": 5068,
  "c:nate": 5069,
  "c:nts.>": 5070,
  "c:umbe": 5071,
  "c:umber": 5072,
  "c: att": 5073,
  "c:ale": 5074,
  "c: a h": 5075,
  "c: ste": 5076,
  "c:eave": 5077,
  "c:is>": 5078,
  "c: moo": 5079,
  "c:h b": 5080,
  "c:las": 5081,
  "c:erna": 5082,
  "c: heat": 5083,
  "c:c, ": 5084,
  "c:on in": 5085,
  "c:poin": 5086,
  "c:point": 5087,
  "c:numbe": 5088,
  "c: hum": 5089,
  "c:olve": 5090,
  "c:uring": 5091,
  "c: cel": 5092,
  "c:-b": 5093,
  "c:ateg": 5094,
  "c:gs a": 5095,
  "c:rry": 5096,
  "c:y ma": 5097,
  "c: hab": 5098,
  "c: habi": 5099,
  "c:comb": 5100,
  "c:rove": 5101,
  "c: bio": 5102,
  "c:a se": 5103,
  "c:nth": 5104,
  "c:thes": 5105,
  "c:onv": 5106,
  "c:gion": 5107,
  "c:d int": 5108,
  "c:or a ": 5109,
  "c:ery ": 5110,
  "c:etiti": 5111,
  "c:ge,": 5112,
  "c:r de": 5113,
  "c: bot": 5114,
  "c:emot": 5115,
  "c:g l": 5116,
  "c:te i": 5117,
  "w:strong": 5118,
  "c:iou": 5119,
  "c:ious": 5120,
  "c:poll": 5121,
  "c: ecos": 5122,
  "c:ms.>": 5123,
  "c:nd n": 5124,
  "c:l n": 5125,
  "c:akes": 5126,
  "c:for s": 5127,
  "c:els ": 5128,
  "c:nutr": 5129,
  "c:utri": 5130,
  "c:unct": 5131,
  "c:nutri": 5132,
  "c:lai": 5133,
  "c: valu": 5134,
  "c:l bec": 5135,
  "c:div": 5136,
  "c:s de": 5137,
  "c:ge, ": 5138,
  "c:ces.>": 5139,
  "c:nctio": 5140,
  "c:nt f": 5141,
  "c:uit": 5142,
  "c:c a": 5143,
  "c:nce.>": 5144,
  "c:amp": 5145,
  "c:rri": 5146,
  "c: what": 5147,
  "c:mpa": 5148,
  "c:feat": 5149,
  "c:gs, ": 5150,
  "c: aro": 5151,
  "c:leave": 5152,
  "c:neral": 5153,
  "c:a ch": 5154,
  "c:osphe": 5155,
  "c:omes": 5156,
  "w:uses": 5157,
  "c:ep ": 5158,
  "c:eet": 5159,
  "c:ctri": 5160,
  "c:ectri": 5161,
  "c:ctric": 5162,
  "c: is s": 5163,
  "c:eal ": 5164,
  "c:ell ": 5165,
  "c: is>": 5166,
  "c:lecti": 5167,
  "c:rog": 5168,
  "c:on c": 5169,
  "w:creative": 5170,
  "c:sor": 5171,
  "c:ompo": 5172,
  "c:compo": 5173,
  "c:eatin": 5174,
  "c:amo": 5175,
  "c:sco": 5176,
  "c:what ": 5177,
  "w:what": 5178,
  "c:ced": 5179,
  "c:tore": 5180,
  "c:r be": 5181,
  "c:as t": 5182,
  "c:low ": 5183,
  "c:ng l": 5184,
  "c:rms ": 5185,
  "c:ped": 5186,
  "c:ials": 5187,
  "c:lte": 5188,
  "c:ite ": 5189,
  "c:ic a": 5190,
  "c:dur": 5191,
  "c: up": 5192,
  "c:loo": 5193,
  "c:healt": 5194,
  "c: fea": 5195,
  "c:y. ": 5196,
  "c:nspo": 5197,
  "c:anspo": 5198,
  "w:short": 5199,
  "c:essio": 5200,
  "c:rad": 5201,
  "c:aini": 5202,
  "c:ainin": 5203,
  "w:structure": 5204,
  "c:pic": 5205,
  "c:ers b": 5206,
  "c:oil": 5207,
  "c: unit": 5208,
  "c:cult": 5209,
  "c:rele": 5210,
  "c:he ma": 5211,
  "c:atic": 5212,
  "c:nspor": 5213,
  "c:ic l": 5214,
  "c:dg": 5215,
  "c:uncti": 5216,
  "c:re m": 5217,
  "c:dow": 5218,
  "c: uses": 5219,
  "c:s by": 5220,
  "c:vr": 5221,
  "c:pare": 5222,
  "c:uma": 5223,
  "c:g r": 5224,
  "c:s. a": 5225,
  "c:ema": 5226,
  "c:od.": 5227,
  "c:ivit": 5228,
  "c:hort ": 5229,
  "c:leas": 5230,
  "c:like ": 5231,
  "c:ment,": 5232,
  "c:s, in": 5233,
  "c:func": 5234,
  "c:funct": 5235,
  "c:ames": 5236,
  "c: tht ": 5237,
  "c:ted t": 5238,
  "c:flowe": 5239,
  "c:l>": 5240,
  "c:ende": 5241,
  "c:rand": 5242,
  "c:m,": 5243,
  "c:loca": 5244,
  "c: vari": 5245,
  "c:d stu": 5246,
  "c:ys ": 5247,
  "c:terna": 5248,
  "c:n in ": 5249,
  "c:y-": 5250,
  "c: eat": 5251,
  "c:t li": 5252,
  "c:le.": 5253,
  "c:oma": 5254,
  "c:atc": 5255,
  "c:atch": 5256,
  "c:eat ": 5257,
  "c:ased": 5258,
  "c:store": 5259,
  "c:tivi": 5260,
  "c:ey a": 5261,
  "c:h.>": 5262,
  "c:ly, a": 5263,
  "c:size": 5264,
  "c:ng fo": 5265,
  "c:centr": 5266,
  "c:in c": 5267,
  "c:s so": 5268,
  "c:he mo": 5269,
  "c:rica": 5270,
  "c:ing d": 5271,
  "c:regi": 5272,
  "c:al co": 5273,
  "c:ting,": 5274,
  "c:mmo": 5275,
  "c:m, ": 5276,
  "c: typ": 5277,
  "c: red": 5278,
  "c: mos": 5279,
  "c:istan": 5280,
  "c: nd ": 5281,
  "c:ter a": 5282,
  "c:s pl": 5283,
  "c:olli": 5284,
  "c:ime ": 5285,
  "c:s a b": 5286,
  "c:back": 5287,
  "c:esc": 5288,
  "w:another": 5289,
  "c:tivit": 5290,
  "c: gi": 5291,
  "c:nd.": 5292,
  "c:ach ": 5293,
  "c:atm": 5294,
  "c:ients": 5295,
  "c: bc": 5296,
  "c:rt o": 5297,
  "c:cept ": 5298,
  "c:rag": 5299,
  "c:alo": 5300,
  "c:rso": 5301,
  "c: natu": 5302,
  "c:led ": 5303,
  "c:forc": 5304,
  "c: on t": 5305,
  "c:f h": 5306,
  "c:nd de": 5307,
  "c: nutr": 5308,
  "c: read": 5309,
  "c:t a b": 5310,
  "c:and u": 5311,
  "c:cyc": 5312,
  "c:tain ": 5313,
  "c:avel": 5314,
  "c: wea": 5315,
  "c: stra": 5316,
  "c:phere": 5317,
  "c: func": 5318,
  "c:<u": 5319,
  "c: comb": 5320,
  "c: lay": 5321,
  "c:rra": 5322,
  "c:broa": 5323,
  "c:broad": 5324,
  "w:ideas": 5325,
  "c:inten": 5326,
  "c: bea": 5327,
  "c:ycl": 5328,
  "c:cycl": 5329,
  "c: ass": 5330,
  "c:to l": 5331,
  "c:ones": 5332,
  "c:e tr": 5333,
  "c:sso": 5334,
  "c:deas ": 5335,
  "c:ture,": 5336,
  "c: is o": 5337,
  "c:lf": 5338,
  "c:e str": 5339,
  "c:arou": 5340,
  "c:ss i": 5341,
  "c:d en": 5342,
  "c:ains ": 5343,
  "c:, pro": 5344,
  "c:sibl": 5345,
  "c:egio": 5346,
  "c:regio": 5347,
  "c:egion": 5348,
  "c:y or": 5349,
  "c:nce,": 5350,
  "c:hat i": 5351,
  "c:ood.": 5352,
  "c: arou": 5353,
  "c:aroun": 5354,
  "c:se.": 5355,
  "c:k.": 5356,
  "c:fle": 5357,
  "c:od,": 5358,
  "c: trac": 5359,
  "c:sens": 5360,
  "c:at e": 5361,
  "c:rs be": 5362,
  "c:, so": 5363,
  "c: tre": 5364,
  "c:s by ": 5365,
  "c:eans ": 5366,
  "c:iste": 5367,
  "c:ompe": 5368,
  "c:compe": 5369,
  "c:ng r": 5370,
  "c:iol": 5371,
  "c:ss o": 5372,
  "c:pes ": 5373,
  "c:erso": 5374,
  "c:rson": 5375,
  "c:perso": 5376,
  "c:erson": 5377,
  "c:l fo": 5378,
  "c:g to ": 5379,
  "c:ok ": 5380,
  "c:ook ": 5381,
  "c:eate ": 5382,
  "w:create": 5383,
  "c:livi": 5384,
  "c:livin": 5385,
  "c:es of": 5386,
  "c:conv": 5387,
  "c:ries ": 5388,
  "c:ondi": 5389,
  "c:ost ": 5390,
  "c: regi": 5391,
  "c: it s": 5392,
  "c:ics ": 5393,
  "c:se a": 5394,
  "c:mmon": 5395,
  "c:od, ": 5396,
  "c:tmo": 5397,
  "c:ater,": 5398,
  "c:udin": 5399,
  "c:atura": 5400,
  "c:<pl": 5401,
  "w:concept": 5402,
  "c:o ca": 5403,
  "c:long ": 5404,
  "c:pir": 5405,
  "c:plore": 5406,
  "c:n on": 5407,
  "c:seed": 5408,
  "c:'s s": 5409,
  "c: depe": 5410,
  "c:ness ": 5411,
  "c:ood,": 5412,
  "c:dn": 5413,
  "c:egg": 5414,
  "c:cies": 5415,
  "c:o co": 5416,
  "c:or in": 5417,
  "c:s thi": 5418,
  "c:r tra": 5419,
  "c:al re": 5420,
  "c:mbin": 5421,
  "c:er in": 5422,
  "c: has": 5423,
  "c:use o": 5424,
  "c:iza": 5425,
  "c:e bod": 5426,
  "c:s mat": 5427,
  "c:nstr": 5428,
  "c:ctica": 5429,
  "c:ers.>": 5430,
  "c:r ex": 5431,
  "c: poi": 5432,
  "c:nic ": 5433,
  "c:nce, ": 5434,
  "w:around": 5435,
  "c:ommo": 5436,
  "c:commo": 5437,
  "c:nger": 5438,
  "c:ood, ": 5439,
  "c:, the": 5440,
  "c:er f": 5441,
  "c:alue": 5442,
  "c:value": 5443,
  "c:on b": 5444,
  "c:gn ": 5445,
  "w:has": 5446,
  "c:ommon": 5447,
  "c:o a ": 5448,
  "c:s mu": 5449,
  "c:mosp": 5450,
  "c:mosph": 5451,
  "c:he bo": 5452,
  "c:ilt": 5453,
  "c: eg": 5454,
  "c: livi": 5455,
  "c:aph": 5456,
  "c:. s": 5457,
  "c:tch ": 5458,
  "c:ecia": 5459,
  "c: serv": 5460,
  "c:re pr": 5461,
  "c:ee ": 5462,
  "c:t ar": 5463,
  "c: a ca": 5464,
  "c:atmo": 5465,
  "c:tmos": 5466,
  "c:atmos": 5467,
  "c:tmosp": 5468,
  "c:ludi": 5469,
  "c:cludi": 5470,
  "c:ludin": 5471,
  "c:uding": 5472,
  "c:ldi": 5473,
  "c:r ma": 5474,
  "c:ime.": 5475,
  "c:time.": 5476,
  "c:re e": 5477,
  "c: soc": 5478,
  "c:orts ": 5479,
  "c:mals ": 5480,
  "c:<a f": 5481,
  "c:sible": 5482,
  "c:t de": 5483,
  "c:cla": 5484,
  "c:esis": 5485,
  "w:known_for": 5486,
  "c:rate ": 5487,
  "w:including": 5488,
  "c:etic ": 5489,
  "c: conv": 5490,
  "c: fra": 5491,
  "c:ffi": 5492,
  "c:ta ": 5493,
  "c:mica": 5494,
  "c:mical": 5495,
  "c:e la": 5496,
  "c:e br": 5497,
  "c:arts ": 5498,
  "c:at o": 5499,
  "c:ill ": 5500,
  "c:uenc": 5501,
  "c:s un": 5502,
  "c:en s": 5503,
  "c:n it": 5504,
  "c:s tr": 5505,
  "c:mpet": 5506,
  "c:ved": 5507,
  "w:the_process": 5508,
  "c:ry,": 5509,
  "c:st i": 5510,
  "c:on w": 5511,
  "c:rce ": 5512,
  "c: abo": 5513,
  "c:ts f": 5514,
  "c:avo": 5515,
  "c:, de": 5516,
  "c:<st": 5517,
  "w:matters": 5518,
  "c:e ex": 5519,
  "c:groun": 5520,
  "c:s ac": 5521,
  "w:living": 5522,
  "c:nar": 5523,
  "c:ets ": 5524,
  "c:. p": 5525,
  "c:wl": 5526,
  "c:bst": 5527,
  "c:ompet": 5528,
  "c:ton": 5529,
  "c: feat": 5530,
  "c: leav": 5531,
  "c:det": 5532,
  "c:ew ": 5533,
  "w:time.": 5534,
  "c:t s ": 5535,
  "c:yg": 5536,
  "c:r to ": 5537,
  "c:syn": 5538,
  "c: egg": 5539,
  "c:s sim": 5540,
  "c: rele": 5541,
  "c: poll": 5542,
  "c: poin": 5543,
  "c:pon": 5544,
  "c:ased ": 5545,
  "c:ism ": 5546,
  "c:has ": 5547,
  "c: has ": 5548,
  "c: a pr": 5549,
  "c:tis": 5550,
  "c:. in": 5551,
  "c:ju": 5552,
  "w:surface": 5553,
  "c:lain": 5554,
  "c:ul b": 5555,
  "c:ful b": 5556,
  "c: tu": 5557,
  "c: moti": 5558,
  "c: sig": 5559,
  "c:ry, ": 5560,
  "c:n, o": 5561,
  "c:re us": 5562,
  "c:both": 5563,
  "c:orce": 5564,
  "c:force": 5565,
  "c:kee": 5566,
  "c:ly o": 5567,
  "c:ecte": 5568,
  "c:ected": 5569,
  "c:d of ": 5570,
  "c:time ": 5571,
  "c:rsio": 5572,
  "c:ersio": 5573,
  "c:rsion": 5574,
  "c:aste": 5575,
  "c:nd ar": 5576,
  "c:play ": 5577,
  "c:ngl": 5578,
  "c:wel": 5579,
  "c:ed e": 5580,
  "c:cks ": 5581,
  "c:a tr": 5582,
  "c:at he": 5583,
  "c: sw": 5584,
  "c:r pl": 5585,
  "c:impr": 5586,
  "c:eep ": 5587,
  "c:pute": 5588,
  "c: stre": 5589,
  "c:itie": 5590,
  "c:ities": 5591,
  "c:a pro": 5592,
  "c: sens": 5593,
  "c:plai": 5594,
  "c:plain": 5595,
  "c:rde": 5596,
  "c:at u": 5597,
  "c:onve": 5598,
  "c:tral": 5599,
  "c:tr ": 5600,
  "c:y a ": 5601,
  "c:nted": 5602,
  "c:le,": 5603,
  "c:re an": 5604,
  "c:gor": 5605,
  "c:nerat": 5606,
  "c:r, an": 5607,
  "c: cell": 5608,
  "c:h d": 5609,
  "c: art ": 5610,
  "c:enter": 5611,
  "c:gs.": 5612,
  "c:phot": 5613,
  "c:hoto": 5614,
  "c:photo": 5615,
  "c:ides": 5616,
  "c:most": 5617,
  "c:conve": 5618,
  "c:ays": 5619,
  "c:r us": 5620,
  "c:coun": 5621,
  "c:count": 5622,
  "c:leg": 5623,
  "c:orb": 5624,
  "c:e mai": 5625,
  "c: det": 5626,
  "c:onf": 5627,
  "c:ily": 5628,
  "c: or t": 5629,
  "c:or st": 5630,
  "c:a>": 5631,
  "c:anges": 5632,
  "c: or f": 5633,
  "c:sce": 5634,
  "c:scen": 5635,
  "c:leme": 5636,
  "c: tog": 5637,
  "c:toge": 5638,
  "c:oget": 5639,
  "c:geth": 5640,
  "c: toge": 5641,
  "c:toget": 5642,
  "c:ogeth": 5643,
  "c:gethe": 5644,
  "c:allo": 5645,
  "c:d com": 5646,
  "c:icate": 5647,
  "c:, wa": 5648,
  "c:bri": 5649,
  "c:o d": 5650,
  "c:nts a": 5651,
  "c:y or ": 5652,
  "c:le, ": 5653,
  "c:ono": 5654,
  "w:from_the": 5655,
  "c:nize": 5656,
  "c:trav": 5657,
  "c:swe": 5658,
  "c:iner": 5659,
  "c:ldin": 5660,
  "c:lding": 5661,
  "c:lemen": 5662,
  "c:ve i": 5663,
  "c:cted ": 5664,
  "c:mpute": 5665,
  "c: onl": 5666,
  "c:he ab": 5667,
  "c:stori": 5668,
  "c:line ": 5669,
  "c: both": 5670,
  "c:to a ": 5671,
  "c:hat e": 5672,
  "c:of h": 5673,
  "c: of h": 5674,
  "c:bcs": 5675,
  "w:bcs": 5676,
  "c:or mo": 5677,
  "c: impr": 5678,
  "c:t fr": 5679,
  "c:<at": 5680,
  "w:a_basic": 5681,
  "c:key": 5682,
  "c:ss,": 5683,
  "c:bt": 5684,
  "c:of f": 5685,
  "c:ity o": 5686,
  "c: med": 5687,
  "c:on d": 5688,
  "c:ecie": 5689,
  "c:pecie": 5690,
  "c:ecies": 5691,
  "c:th th": 5692,
  "c:ith t": 5693,
  "c:y pr": 5694,
  "c:arra": 5695,
  "c:ls t": 5696,
  "c:ntat": 5697,
  "c:entat": 5698,
  "c:ntati": 5699,
  "c:gth": 5700,
  "c:l to": 5701,
  "c:her.": 5702,
  "c:s a t": 5703,
  "c: min": 5704,
  "c:e sho": 5705,
  "c:a li": 5706,
  "c:cts,": 5707,
  "c:cts, ": 5708,
  "c:n st": 5709,
  "c:nd g": 5710,
  "c: to l": 5711,
  "c: atm": 5712,
  "c: atmo": 5713,
  "c: of f": 5714,
  "c:ly s": 5715,
  "c:tten": 5716,
  "c:, of": 5717,
  "c:are p": 5718,
  "c:ml": 5719,
  "c:pecia": 5720,
  "c:ngt": 5721,
  "c:ther.": 5722,
  "c:amma": 5723,
  "c:earn": 5724,
  "c:rnin": 5725,
  "c:rning": 5726,
  "c:tia": 5727,
  "c:rdi": 5728,
  "c:<a co": 5729,
  "c:e ce": 5730,
  "c:hed": 5731,
  "c: medi": 5732,
  "c:ks,": 5733,
  "c:cm": 5734,
  "c:ne is": 5735,
  "c:d. ": 5736,
  "c:at p": 5737,
  "c:is p": 5738,
  "c:goo": 5739,
  "c:les.>": 5740,
  "c:ffic": 5741,
  "c:, di": 5742,
  "c:nts t": 5743,
  "w:images,": 5744,
  "c:omet": 5745,
  "c: i ": 5746,
  "c:ss, ": 5747,
  "c:h an": 5748,
  "c:eds ": 5749,
  "c:fort": 5750,
  "c:emoti": 5751,
  "c:rave": 5752,
  "c:rks ": 5753,
  "c:d wh": 5754,
  "c:ic,": 5755,
  "c: bcs": 5756,
  "c:d me": 5757,
  "c:grap": 5758,
  "c:good": 5759,
  "c:ul be": 5760,
  "c:ectiv": 5761,
  "c:emic": 5762,
  "c:ks a": 5763,
  "c:titio": 5764,
  "c:xpr": 5765,
  "c:s bo": 5766,
  "c:s r ": 5767,
  "c: loca": 5768,
  "c:eda": 5769,
  "c:e cr": 5770,
  "c:meani": 5771,
  "c:lid": 5772,
  "c:, oft": 5773,
  "c:ival": 5774,
  "c:re im": 5775,
  "c:al l": 5776,
  "c:huma": 5777,
  "c:uman": 5778,
  "c:human": 5779,
  "c:ndit": 5780,
  "c:condi": 5781,
  "c:ondit": 5782,
  "c:nditi": 5783,
  "c:u ": 5784,
  "c: sign": 5785,
  "c:e int": 5786,
  "c:redi": 5787,
  "c:temp": 5788,
  "c:rt,": 5789,
  "c:trave": 5790,
  "c:ks, ": 5791,
  "c:rials": 5792,
  "c:educ": 5793,
  "c:ic, ": 5794,
  "c:yle": 5795,
  "c:oul": 5796,
  "c:nver": 5797,
  "c:ata ": 5798,
  "c:part ": 5799,
  "c:ents.": 5800,
  "c:n di": 5801,
  "c:ry.": 5802,
  "c:aud": 5803,
  "c: a so": 5804,
  "c:t exp": 5805,
  "c:ower ": 5806,
  "w:air": 5807,
  "c: trav": 5808,
  "c:ravel": 5809,
  "c:ned t": 5810,
  "c:yd": 5811,
  "c:at m": 5812,
  "c:lter": 5813,
  "c:ssu": 5814,
  "c:raph": 5815,
  "c:anat": 5816,
  "c:aso": 5817,
  "c:lk": 5818,
  "c:iate": 5819,
  "c:web": 5820,
  "c:r con": 5821,
  "c:e abi": 5822,
  "c:rt, ": 5823,
  "c:y>": 5824,
  "c:and n": 5825,
  "c:ared": 5826,
  "c:hey a": 5827,
  "c:rly": 5828,
  "w:both": 5829,
  "c:ing l": 5830,
  "c:at,": 5831,
  "c:tor ": 5832,
  "c:graph": 5833,
  "c: real": 5834,
  "c:h>": 5835,
  "c:hemic": 5836,
  "c:emica": 5837,
  "c:e whe": 5838,
  "c: soci": 5839,
  "w:is_the_process": 5840,
  "c:ngth": 5841,
  "c:ts to": 5842,
  "c:it c": 5843,
  "c:allow": 5844,
  "c:bcs ": 5845,
  "c:pie": 5846,
  "c:or u": 5847,
  "c:tree": 5848,
  "c:mel": 5849,
  "c:ency": 5850,
  "c:lean": 5851,
  "c:a fo": 5852,
  "c:a di": 5853,
  "c:nd mo": 5854,
  "c:brand": 5855,
  "c:an s": 5856,
  "c:ze ": 5857,
  "c:ies.>": 5858,
  "c:boa": 5859,
  "c:d exp": 5860,
  "c:ontai": 5861,
  "c:at, ": 5862,
  "c:to b": 5863,
  "c:ees ": 5864,
  "c: vo": 5865,
  "w:data": 5866,
  "c:l or": 5867,
  "c:mpeti": 5868,
  "c:ecial": 5869,
  "c: visi": 5870,
  "c:resp": 5871,
  "c:audi": 5872,
  "c:s, e": 5873,
  "c:ce an": 5874,
  "c:nded": 5875,
  "c:n to ": 5876,
  "c:ynt": 5877,
  "c:synt": 5878,
  "c:nse ": 5879,
  "c:rmi": 5880,
  "c:c i": 5881,
  "c:, te": 5882,
  "c:ns o": 5883,
  "c:to h": 5884,
  "c:on, s": 5885,
  "c:tifi": 5886,
  "c:l-": 5887,
  "c: heal": 5888,
  "c:ts of": 5889,
  "c:al w": 5890,
  "w:software": 5891,
  "c:a mea": 5892,
  "c:<re": 5893,
  "c:rch": 5894,
  "c: a>": 5895,
  "c:n us": 5896,
  "c:rw": 5897,
  "c:re f": 5898,
  "c:ter.": 5899,
  "c:gas": 5900,
  "c:ynth": 5901,
  "c:synth": 5902,
  "c:uld": 5903,
  "c:ould": 5904,
  "c:puter": 5905,
  "c:bon": 5906,
  "c:cused": 5907,
  "c:biol": 5908,
  "c:niv": 5909,
  "c:are s": 5910,
  "c:refe": 5911,
  "c:efer": 5912,
  "c:refer": 5913,
  "c:nom": 5914,
  "c:anet": 5915,
  "c:lanet": 5916,
  "c:both ": 5917,
  "c:les,": 5918,
  "c:les, ": 5919,
  "c:as s": 5920,
  "c: bcs ": 5921,
  "c:tyle": 5922,
  "c:<pr": 5923,
  "c:data ": 5924,
  "w:is_this": 5925,
  "c:h l": 5926,
  "c:tf": 5927,
  "c:tenti": 5928,
  "c:e pe": 5929,
  "c:he su": 5930,
  "c: tw": 5931,
  "c:or v": 5932,
  "c:arry": 5933,
  "c:carry": 5934,
  "c:ntl": 5935,
  "c: cal": 5936,
  "c:style": 5937,
  "c:l for": 5938,
  "c:d as": 5939,
  "c:means": 5940,
  "c:c le": 5941,
  "c:ic le": 5942,
  "c:c lev": 5943,
  "c:spir": 5944,
  "c:f w": 5945,
  "c:alit": 5946,
  "c:ncy ": 5947,
  "c: seed": 5948,
  "c:or pr": 5949,
  "c:on f": 5950,
  "c:or g": 5951,
  "c:ian": 5952,
  "c:er l": 5953,
  "c:ging ": 5954,
  "w:the_ability": 5955,
  "c:apes": 5956,
  "c:kes ": 5957,
  "w:object": 5958,
  "c:eeds ": 5959,
  "w:a_large": 5960,
  "c:pl ": 5961,
  "c:endi": 5962,
  "c:th m": 5963,
  "c: to b": 5964,
  "c:ovie": 5965,
  "c:movie": 5966,
  "c:mam": 5967,
  "c:learn": 5968,
  "c:ntio": 5969,
  "c:keep": 5970,
  "c:ces,": 5971,
  "c:de f": 5972,
  "c: cla": 5973,
  "c:ivity": 5974,
  "c:sic l": 5975,
  "c:ines ": 5976,
  "c:cer": 5977,
  "c:games": 5978,
  "c:e wo": 5979,
  "c:item": 5980,
  "c:evel,": 5981,
  "w:level,": 5982,
  "c:le.>": 5983,
  "c:a cl": 5984,
  "c:iolo": 5985,
  "c:iolog": 5986,
  "c:for c": 5987,
  "c:based": 5988,
  "c: cli": 5989,
  "c:elati": 5990,
  "c:eaves": 5991,
  "c: vers": 5992,
  "c: emo": 5993,
  "c: emot": 5994,
  "c: arti": 5995,
  "c:bel": 5996,
  "c:ent t": 5997,
  "c:endin": 5998,
  "c:on m": 5999,
  "c:w i": 6000,
  "c:nthe": 6001,
  "w:means": 6002,
  "c:e ha": 6003,
  "w:part": 6004,
  "c:n ex": 6005,
  "c:h'": 6006,
  "c:h's": 6007,
  "c:nted ": 6008,
  "c:dies": 6009,
  "c:hin ": 6010,
  "c:nfl": 6011,
  "c:ogy ": 6012,
  "c:logy ": 6013,
  "c:als.": 6014,
  "c:asu": 6015,
  "c:h u": 6016,
  "c: ite": 6017,
  "c:pee": 6018,
  "c:clean": 6019,
  "c:ind ": 6020,
  "c:gy i": 6021,
  "c: in w": 6022,
  "c:entio": 6023,
  "c:ntion": 6024,
  "c:le c": 6025,
  "w:is_a_small": 6026,
  "c:for p": 6027,
  "c:hers": 6028,
  "c:rger": 6029,
  "c:arger": 6030,
  "c:llec": 6031,
  "c:llect": 6032,
  "c:,>": 6033,
  "c: lik": 6034,
  "c: like": 6035,
  "c:mine": 6036,
  "c: kee": 6037,
  "c:iet": 6038,
  "c:ds t": 6039,
  "c:off": 6040,
  "c:s, l": 6041,
  "c:le o": 6042,
  "c: in m": 6043,
  "c:rces": 6044,
  "c:c p": 6045,
  "c:viva": 6046,
  "c:vival": 6047,
  "c:erve": 6048,
  "c:ntent": 6049,
  "c:ges a": 6050,
  "c:tti": 6051,
  "c:th'": 6052,
  "c:rth'": 6053,
  "c:th's": 6054,
  "c:rth's": 6055,
  "c:ces, ": 6056,
  "c:set ": 6057,
  "c:ives": 6058,
  "c:was": 6059,
  "c:ke t": 6060,
  "c:andi": 6061,
  "c:al d": 6062,
  "c:ier": 6063,
  "c:mpro": 6064,
  "c:impro": 6065,
  "c:ubs": 6066,
  "c:g of": 6067,
  "c:cam": 6068,
  "c:reas": 6069,
  "c:isp": 6070,
  "w:at_a_basic": 6071,
  "c:rviva": 6072,
  "c:cra": 6073,
  "c:iss": 6074,
  "c:he re": 6075,
  "c: gas": 6076,
  "c:n, or": 6077,
  "c:nce o": 6078,
  "c:epa": 6079,
  "c:tar ": 6080,
  "c: on a": 6081,
  "c:r of": 6082,
  "c:et i": 6083,
  "c:ared ": 6084,
  "c: was": 6085,
  "c:, tra": 6086,
  "c:cri": 6087,
  "w:matters_because": 6088,
  "c: sn": 6089,
  "c:redu": 6090,
  "c:d fr": 6091,
  "c:ven ": 6092,
  "c:, un": 6093,
  "c: most": 6094,
  "c:day": 6095,
  "c: item": 6096,
  "w:basic_level,": 6097,
  "w:a_basic_level,": 6098,
  "c:hat t": 6099,
  "c:perie": 6100,
  "c:erien": 6101,
  "c:rienc": 6102,
  "c: web": 6103,
  "c: dur": 6104,
  "c:ecom": 6105,
  "c: s n": 6106,
  "c: to h": 6107,
  "c:thers": 6108,
  "c:t ha": 6109,
  "c:icles": 6110,
  "c:nd.>": 6111,
  "c:each ": 6112,
  "c:, inc": 6113,
  "c:, me": 6114,
  "c:reduc": 6115,
  "c:o o": 6116,
  "c:a dev": 6117,
  "c:ogra": 6118,
  "c:volv": 6119,
  "c:nces ": 6120,
  "c:elea": 6121,
  "c:relea": 6122,
  "c:eleas": 6123,
  "c:reen": 6124,
  "c:gest": 6125,
  "c:y us": 6126,
  "c:mec": 6127,
  "c: sea": 6128,
  "c: redu": 6129,
  "c:mprov": 6130,
  "c:itu": 6131,
  "c:uld ": 6132,
  "c:ould ": 6133,
  "c: broa": 6134,
  "c:o.": 6135,
  "c:tific": 6136,
  "w:you": 6137,
  "c:ells": 6138,
  "c:fit": 6139,
  "w:model": 6140,
  "c:h's ": 6141,
  "c:a.": 6142,
  "c:n ai": 6143,
  "c:r in ": 6144,
  "c:od.>": 6145,
  "c:rdin": 6146,
  "c:fic ": 6147,
  "c:l, a": 6148,
  "c:mem": 6149,
  "c:eling": 6150,
  "c:f a m": 6151,
  "c:hard": 6152,
  "c:ombi": 6153,
  "c:hat p": 6154,
  "c:rul": 6155,
  "c: pri": 6156,
  "c:ved ": 6157,
  "c:le p": 6158,
  "c: scr": 6159,
  "c:uat": 6160,
  "c:er u": 6161,
  "c:ch o": 6162,
  "c:abs": 6163,
  "c:e fi": 6164,
  "c:combi": 6165,
  "c:ombin": 6166,
  "c:asur": 6167,
  "c:oods": 6168,
  "c:ynthe": 6169,
  "c:yer ": 6170,
  "c:or w": 6171,
  "c:<at ": 6172,
  "c:or is": 6173,
  "c:nd ca": 6174,
  "c:<fo": 6175,
  "c:th p": 6176,
  "w:focused": 6177,
  "c: aud": 6178,
  "c: audi": 6179,
  "c:ess o": 6180,
  "c:del ": 6181,
  "c:odel ": 6182,
  "c:th's ": 6183,
  "c:ted c": 6184,
  "c:tial": 6185,
  "c:e k": 6186,
  "c:sona": 6187,
  "c:tag": 6188,
  "c:pm": 6189,
  "c:pose": 6190,
  "c:to co": 6191,
  "c:xplai": 6192,
  "c:eated": 6193,
  "c:hat u": 6194,
  "c:e des": 6195,
  "c:ntral": 6196,
  "c:ou ": 6197,
  "c:you ": 6198,
  "c:ents,": 6199,
  "c: qua": 6200,
  "c:mamm": 6201,
  "c:mmal": 6202,
  "c:mamma": 6203,
  "c:ammal": 6204,
  "c:te a": 6205,
  "c: lear": 6206,
  "c:rth ": 6207,
  "c:ttin": 6208,
  "c:tting": 6209,
  "c:thin ": 6210,
  "c:ut a": 6211,
  "c:fou": 6212,
  "c:rt is": 6213,
  "c: a sp": 6214,
  "c:stry": 6215,
  "c:andin": 6216,
  "w:water,": 6217,
  "c:<an a": 6218,
  "c:k t": 6219,
  "c:<tr": 6220,
  "c:s hav": 6221,
  "c:deo": 6222,
  "c: huma": 6223,
  "c:biolo": 6224,
  "c: mam": 6225,
  "c: mamm": 6226,
  "c:rath": 6227,
  "c:f ma": 6228,
  "c:lot": 6229,
  "c:r pro": 6230,
  "c:a sh": 6231,
  "c:ty a": 6232,
  "c:re co": 6233,
  "c: cor": 6234,
  "c:siv": 6235,
  "c:ty of": 6236,
  "c:utrie": 6237,
  "c:trien": 6238,
  "c:t wh": 6239,
  "c:rule": 6240,
  "w:change": 6241,
  "c:s di": 6242,
  "c:name": 6243,
  "c:nd so": 6244,
  "c:cultu": 6245,
  "c:ss t": 6246,
  "c:d, o": 6247,
  "c:ollin": 6248,
  "c:of ma": 6249,
  "c:e cl": 6250,
  "c:assi": 6251,
  "c:ed or": 6252,
  "c:uence": 6253,
  "c:te t": 6254,
  "c:uilt": 6255,
  "c:ed an": 6256,
  "c:imate": 6257,
  "c:built": 6258,
  "c:m c": 6259,
  "c:ime.>": 6260,
  "c:de o": 6261,
  "c:nt w": 6262,
  "c: pie": 6263,
  "c:nded ": 6264,
  "c:easu": 6265,
  "c:easur": 6266,
  "c:a fl": 6267,
  "c:y ca": 6268,
  "c:<at a": 6269,
  "c:tral ": 6270,
  "c:engt": 6271,
  "c:ength": 6272,
  "c:r di": 6273,
  "c:g st": 6274,
  "c:g in ": 6275,
  "c: rath": 6276,
  "c:rathe": 6277,
  "w:rather": 6278,
  "w:rather_than": 6279,
  "c:cook": 6280,
  "c: wt": 6281,
  "c:itc": 6282,
  "c:se.>": 6283,
  "c:arl": 6284,
  "c:r pa": 6285,
  "c:meta": 6286,
  "c:w t": 6287,
  "c: sty": 6288,
  "c: allo": 6289,
  "c: hard": 6290,
  "c:hes ": 6291,
  "c:sis ": 6292,
  "c: sel": 6293,
  "c:g n": 6294,
  "w:useful_because": 6295,
  "c:n tha": 6296,
  "c:e he": 6297,
  "c:turn": 6298,
  "c: dom": 6299,
  "c:d di": 6300,
  "c:th c": 6301,
  "c:dic": 6302,
  "c:s ch": 6303,
  "c:ies a": 6304,
  "c:ood.>": 6305,
  "c:ances": 6306,
  "c:es, s": 6307,
  "c:on. ": 6308,
  "c: fou": 6309,
  "c:d sh": 6310,
  "c:y the": 6311,
  "c:colle": 6312,
  "c:ollec": 6313,
  "c:rtn": 6314,
  "c:zat": 6315,
  "c:izat": 6316,
  "c:zati": 6317,
  "c:izati": 6318,
  "c:zatio": 6319,
  "c:ators": 6320,
  "c:at co": 6321,
  "c:a con": 6322,
  "c:ct.": 6323,
  "c: goo": 6324,
  "c:eque": 6325,
  "c:easo": 6326,
  "c:ason": 6327,
  "c:eason": 6328,
  "c:writi": 6329,
  "c:ritin": 6330,
  "w:is_the_ability": 6331,
  "c:aves ": 6332,
  "c:ng st": 6333,
  "c:ryt": 6334,
  "c:user": 6335,
  "c:akes ": 6336,
  "c: rou": 6337,
  "c:nd an": 6338,
  "c:ycle": 6339,
  "c:cycle": 6340,
  "c:rs an": 6341,
  "c:ules": 6342,
  "c:ily ": 6343,
  "c:raf": 6344,
  "c:driv": 6345,
  "c: good": 6346,
  "c:ayer ": 6347,
  "c:t use": 6348,
  "c:ideo": 6349,
  "w:time": 6350,
  "c:vert": 6351,
  "c:wers": 6352,
  "c: biol": 6353,
  "c:l con": 6354,
  "c:ality": 6355,
  "c:y, s": 6356,
  "c:nd,": 6357,
  "c:itch": 6358,
  "c:tak": 6359,
  "c: air ": 6360,
  "c:a ro": 6361,
  "c:k.>": 6362,
  "c:and g": 6363,
  "c:ish ": 6364,
  "c:hat m": 6365,
  "c:twor": 6366,
  "c:twork": 6367,
  "c:a fi": 6368,
  "c:tecti": 6369,
  "c:onver": 6370,
  "c:lana": 6371,
  "c:xplan": 6372,
  "c:plana": 6373,
  "c:lanat": 6374,
  "c:spee": 6375,
  "c:ern ": 6376,
  "c:ted b": 6377,
  "c:end ": 6378,
  "c:nd us": 6379,
  "c:abou": 6380,
  "c:bout": 6381,
  "c:about": 6382,
  "c:sive": 6383,
  "c:reak": 6384,
  "c:arth'": 6385,
  "w:parts": 6386,
  "c:vat": 6387,
  "c:ward ": 6388,
  "c:l u": 6389,
  "c:ts p": 6390,
  "c:a ga": 6391,
  "c:anati": 6392,
  "c:ty to": 6393,
  "c:terf": 6394,
  "c:erse": 6395,
  "c:video": 6396,
  "c:t, o": 6397,
  "c:ic i": 6398,
  "c:icia": 6399,
  "c: abou": 6400,
  "c:gm": 6401,
  "c:he sh": 6402,
  "c:to pr": 6403,
  "c:stri": 6404,
  "w:earth's": 6405,
  "c:maki": 6406,
  "c:makin": 6407,
  "c:th.": 6408,
  "c:fly": 6409,
  "c:er, a": 6410,
  "c:sd": 6411,
  "c:down": 6412,
  "c:effe": 6413,
  "c:effec": 6414,
  "c:utio": 6415,
  "w:information": 6416,
  "c:who": 6417,
  "c:g>": 6418,
  "c:cula": 6419,
  "c:rab": 6420,
  "w:central": 6421,
  "c:ber ": 6422,
  "c:ced ": 6423,
  "c:nsh": 6424,
  "c:trm": 6425,
  "c:nd, ": 6426,
  "c:pta": 6427,
  "c:r use": 6428,
  "c:re d": 6429,
  "c:pme": 6430,
  "c:pmen": 6431,
  "c:pment": 6432,
  "c:p t": 6433,
  "c: rul": 6434,
  "c:subs": 6435,
  "c:a to": 6436,
  "c:e uni": 6437,
  "c:rs ar": 6438,
  "c:d ch": 6439,
  "c:ts b": 6440,
  "c:g, o": 6441,
  "c: resp": 6442,
  "c:n sm": 6443,
  "c: tas": 6444,
  "c:add": 6445,
  "c:clim": 6446,
  "c:a pe": 6447,
  "c: ind": 6448,
  "c:nting": 6449,
  "c:side ": 6450,
  "c:nda": 6451,
  "c:rus": 6452,
  "c: forc": 6453,
  "c:d str": 6454,
  "c:lm ": 6455,
  "c:t pro": 6456,
  "c: rule": 6457,
  "c:ng of": 6458,
  "c:s pla": 6459,
  "c:ndl": 6460,
  "c:rall": 6461,
  "c:ning,": 6462,
  "c:ic p": 6463,
  "c:eni": 6464,
  "c:site": 6465,
  "c:e cha": 6466,
  "c:quid": 6467,
  "c:ng, o": 6468,
  "c:e ba": 6469,
  "c:plat": 6470,
  "c:ns an": 6471,
  "c:, cl": 6472,
  "c: leg": 6473,
  "c:bol": 6474,
  "c:y, o": 6475,
  "c:ution": 6476,
  "c:n-": 6477,
  "c:aming": 6478,
  "c:ases": 6479,
  "c:, pl": 6480,
  "c:lut": 6481,
  "c:at r": 6482,
  "c:, ma": 6483,
  "c:ude ": 6484,
  "c:s ad": 6485,
  "c:ess i": 6486,
  "c:on or": 6487,
  "c:s as": 6488,
  "c:lture": 6489,
  "c:ll i": 6490,
  "c:v ": 6491,
  "c:r pla": 6492,
  "c:idi": 6493,
  "c:r se": 6494,
  "c:<a l": 6495,
  "c:efo": 6496,
  "c:efor": 6497,
  "c: phot": 6498,
  "c:vera": 6499,
  "c:sam": 6500,
  "c:serve": 6501,
  "c:rical": 6502,
  "c:e po": 6503,
  "c:break": 6504,
  "c:, se": 6505,
  "c:ive t": 6506,
  "c:y ar": 6507,
  "c:, suc": 6508,
  "c:ize ": 6509,
  "c:xy": 6510,
  "c:anize": 6511,
  "c:istr": 6512,
  "w:a_device": 6513,
  "c:xa": 6514,
  "c:tos": 6515,
  "c:r li": 6516,
  "c:ious ": 6517,
  "c:ellin": 6518,
  "c: subs": 6519,
  "c:f r": 6520,
  "w:about": 6521,
  "c:hapes": 6522,
  "c:lease": 6523,
  "c:exi": 6524,
  "c:ing r": 6525,
  "c:ems.": 6526,
  "c: wel": 6527,
  "c:well": 6528,
  "c:aff": 6529,
  "c:are t": 6530,
  "c:tere": 6531,
  "c:r me": 6532,
  "c:trat": 6533,
  "c:ios": 6534,
  "c:lg": 6535,
  "c:ptu": 6536,
  "c: styl": 6537,
  "c:meas": 6538,
  "c:measu": 6539,
  "c:ng n": 6540,
  "c:ader": 6541,
  "c:itt": 6542,
  "c:d sp": 6543,
  "c:nd fo": 6544,
  "c: vid": 6545,
  "c: vide": 6546,
  "c:es ca": 6547,
  "c: lin": 6548,
  "c: cur": 6549,
  "c:a str": 6550,
  "c: keep": 6551,
  "c:cces": 6552,
  "c:ccess": 6553,
  "c: cate": 6554,
  "c:gh t": 6555,
  "c:oper": 6556,
  "c:hare": 6557,
  "c:es u": 6558,
  "c:-f": 6559,
  "c:nsf": 6560,
  "c: is m": 6561,
  "c:te is": 6562,
  "c:pula": 6563,
  "c:tice": 6564,
  "c:nate ": 6565,
  "c:to ca": 6566,
  "c:oon": 6567,
  "c:arni": 6568,
  "c:ttr": 6569,
  "c:bout ": 6570,
  "c:ly i": 6571,
  "c:ull": 6572,
  "c:<a d": 6573,
  "c:ordi": 6574,
  "c:ordin": 6575,
  "c:moun": 6576,
  "c:re of": 6577,
  "c:c d": 6578,
  "c:ake t": 6579,
  "c: war": 6580,
  "c:rman": 6581,
  "c: rol": 6582,
  "c:oe": 6583,
  "c:art o": 6584,
  "c:gul": 6585,
  "c:ciat": 6586,
  "w:version": 6587,
  "w:focused_on": 6588,
  "c:he n": 6589,
  "c:the n": 6590,
  "w:an_insect": 6591,
  "c:ct i": 6592,
  "c:sms s": 6593,
  "c:mount": 6594,
  "c:ilt ": 6595,
  "c:ver t": 6596,
  "c:gen ": 6597,
  "c:is r": 6598,
  "c:ie ": 6599,
  "c:r su": 6600,
  "c:n v": 6601,
  "c:ly f": 6602,
  "c:f d": 6603,
  "c:e imp": 6604,
  "c:wth ": 6605,
  "c:ompa": 6606,
  "c:compa": 6607,
  "c:omple": 6608,
  "c:em i": 6609,
  "c:ll a": 6610,
  "w:unlim8ted_project": 6611,
  "c:lanc": 6612,
  "c:r of ": 6613,
  "c:eig": 6614,
  "c:are c": 6615,
  "c:dista": 6616,
  "c:ith s": 6617,
  "c:oat": 6618,
  "c:nstru": 6619,
  "c:fre": 6620,
  "c:r. ": 6621,
  "c:r ti": 6622,
  "c:live ": 6623,
  "c:s pa": 6624,
  "c:re in": 6625,
  "c:prove": 6626,
  "c: spor": 6627,
  "c:ry s": 6628,
  "c: sam": 6629,
  "c:bsta": 6630,
  "c:duri": 6631,
  "c:durin": 6632,
  "c:of w": 6633,
  "c:mme": 6634,
  "c:erns": 6635,
  "c:ss of": 6636,
  "c:ure.": 6637,
  "c:lr": 6638,
  "c:ne o": 6639,
  "c:ion. ": 6640,
  "c:share": 6641,
  "c:k o": 6642,
  "c:n de": 6643,
  "w:area": 6644,
  "c:ps m": 6645,
  "c:s it": 6646,
  "c:g co": 6647,
  "c:fram": 6648,
  "c:o st": 6649,
  "c:pan": 6650,
  "c:to d": 6651,
  "c:rmin": 6652,
  "c:ubst": 6653,
  "c:subst": 6654,
  "c: is p": 6655,
  "w:during": 6656,
  "c:ker ": 6657,
  "c: of w": 6658,
  "w:so": 6659,
  "c:, im": 6660,
  "c:th i": 6661,
  "c:e pra": 6662,
  "c:tend": 6663,
  "w:a_unlim8ted_project": 6664,
  "c:agi": 6665,
  "c:sure ": 6666,
  "c:pass": 6667,
  "c:l tha": 6668,
  "c:p o": 6669,
  "c:se is": 6670,
  "c: abs": 6671,
  "c: appe": 6672,
  "c:al pr": 6673,
  "c:an ar": 6674,
  "c:rea ": 6675,
  "c:area ": 6676,
  "c:s mak": 6677,
  "c:s na": 6678,
  "c:trn": 6679,
  "c:rt v": 6680,
  "c:lear ": 6681,
  "c: duri": 6682,
  "c:ann": 6683,
  "c: sca": 6684,
  "c:olu": 6685,
  "c:scre": 6686,
  "c: bac": 6687,
  "w:matter": 6688,
  "c:irt": 6689,
  "c:ngu": 6690,
  "c:anic": 6691,
  "c:lowi": 6692,
  "c:lowin": 6693,
  "c:apta": 6694,
  "c:saf": 6695,
  "c:afe": 6696,
  "c:safe": 6697,
  "c: user": 6698,
  "c:onom": 6699,
  "c:omi": 6700,
  "c:ctivi": 6701,
  "c:tage": 6702,
  "c: meas": 6703,
  "c:<pla": 6704,
  "c:h r": 6705,
  "c:e wor": 6706,
  "c:run": 6707,
  "c:rt of": 6708,
  "c:liq": 6709,
  "c:liqu": 6710,
  "c:iqui": 6711,
  "c: rem": 6712,
  "c: so ": 6713,
  "c:d id": 6714,
  "c:d ide": 6715,
  "c: cook": 6716,
  "c:dapta": 6717,
  "c: bal": 6718,
  "c:astr": 6719,
  "c:sics": 6720,
  "c:cts t": 6721,
  "c:expr": 6722,
  "c:xpre": 6723,
  "c:expre": 6724,
  "c:xpres": 6725,
  "c:rger ": 6726,
  "c:e on": 6727,
  "c:g on": 6728,
  "c:uilt ": 6729,
  "c:rme": 6730,
  "c:cto": 6731,
  "c:repe": 6732,
  "c:g ma": 6733,
  "c:o an": 6734,
  "c:e na": 6735,
  "c:r ot": 6736,
  "c:r oth": 6737,
  "c:r un": 6738,
  "c:liqui": 6739,
  "c:iquid": 6740,
  "c:f o": 6741,
  "c:isib": 6742,
  "c:visib": 6743,
  "c:d un": 6744,
  "c:ool ": 6745,
  "c:epar": 6746,
  "c:bat": 6747,
  "c:most ": 6748,
  "c:at ex": 6749,
  "w:larger": 6750,
  "c:top": 6751,
  "c:ng on": 6752,
  "c:er to": 6753,
  "c:ns. ": 6754,
  "c:a po": 6755,
  "c: a bo": 6756,
  "c:opu": 6757,
  "c:ng ma": 6758,
  "c:ovin": 6759,
  "c:es, t": 6760,
  "c:arin": 6761,
  "c: bee": 6762,
  "c:mber ": 6763,
  "c:l wi": 6764,
  "c:ervi": 6765,
  "c:tom": 6766,
  "c: tem": 6767,
  "c: temp": 6768,
  "w:the_main": 6769,
  "c:atic ": 6770,
  "c:a wa": 6771,
  "c:on, o": 6772,
  "c:nch": 6773,
  "c:e fe": 6774,
  "c:a be": 6775,
  "c:s ex": 6776,
  "c: sti": 6777,
  "c:conf": 6778,
  "c:. in ": 6779,
  "c:ands": 6780,
  "c:dar": 6781,
  "w:natural": 6782,
  "c: effe": 6783,
  "c:nou": 6784,
  "c:otos": 6785,
  "c:'s n": 6786,
  "c: spee": 6787,
  "c:ay t": 6788,
  "c:her.>": 6789,
  "c:ry.>": 6790,
  "c:nci": 6791,
  "c:s cl": 6792,
  "c:ego": 6793,
  "w:is_a_large": 6794,
  "c:ila": 6795,
  "c:yers": 6796,
  "c:pha": 6797,
  "w:built": 6798,
  "c:th b": 6799,
  "c: is r": 6800,
  "w:designed_to": 6801,
  "c:oving": 6802,
  "c:phon": 6803,
  "c:or ot": 6804,
  "c:tua": 6805,
  "c:ace.": 6806,
  "c:gula": 6807,
  "c:e tra": 6808,
  "c:es e": 6809,
  "c:ficia": 6810,
  "c:icial": 6811,
  "c:ppea": 6812,
  "c:appea": 6813,
  "c:s. a ": 6814,
  "c:ined": 6815,
  "c:int ": 6816,
  "c:lves": 6817,
  "c:pai": 6818,
  "c:ign ": 6819,
  "c:<ca": 6820,
  "c:sat": 6821,
  "c:s com": 6822,
  "c:ity a": 6823,
  "c:ct c": 6824,
  "c:lab": 6825,
  "c:ge o": 6826,
  "c:ice t": 6827,
  "c:, str": 6828,
  "c: refe": 6829,
  "c:thy": 6830,
  "c:def": 6831,
  "c:hotos": 6832,
  "c:nd su": 6833,
  "c:m p": 6834,
  "c:icle ": 6835,
  "c:open": 6836,
  "c:efore": 6837,
  "c:s, st": 6838,
  "c:t di": 6839,
  "c:ur ": 6840,
  "c:city ": 6841,
  "c:ific ": 6842,
  "c:ayers": 6843,
  "c:ke th": 6844,
  "c: cam": 6845,
  "c: who": 6846,
  "w:most": 6847,
  "c:uck": 6848,
  "c:re w": 6849,
  "c:utt": 6850,
  "c:m f": 6851,
  "c:ears": 6852,
  "c:ter.>": 6853,
  "c:ype": 6854,
  "c:p is": 6855,
  "c:h of": 6856,
  "c: well": 6857,
  "c:th o": 6858,
  "c:s, g": 6859,
  "c:rry ": 6860,
  "c:, con": 6861,
  "c:e by": 6862,
  "c:ax": 6863,
  "c:re n": 6864,
  "c:te,": 6865,
  "c:h e": 6866,
  "c: a se": 6867,
  "c:tn s": 6868,
  "c:l or ": 6869,
  "c:ubsta": 6870,
  "c:bstan": 6871,
  "c:ency ": 6872,
  "c:qual": 6873,
  "c:yte": 6874,
  "c:eu": 6875,
  "c:bef": 6876,
  "c:befo": 6877,
  "c:befor": 6878,
  "c:lance": 6879,
  "c:renc": 6880,
  "c:eigh": 6881,
  "c:s no": 6882,
  "c:n wi": 6883,
  "c:asse": 6884,
  "c: expr": 6885,
  "c:egor": 6886,
  "c:d tr": 6887,
  "c:lace ": 6888,
  "c:um ": 6889,
  "c:rock": 6890,
  "c:ggs": 6891,
  "c:y g": 6892,
  "c: nt": 6893,
  "c:ion b": 6894,
  "c:lies": 6895,
  "w:chemical": 6896,
  "c:nce t": 6897,
  "c:ansf": 6898,
  "c:ransf": 6899,
  "c:cy i": 6900,
  "c:ore p": 6901,
  "c:ired": 6902,
  "c:ysics": 6903,
  "c:td ": 6904,
  "c: av": 6905,
  "c:mpl ": 6906,
  "c: mar": 6907,
  "c:ns ar": 6908,
  "c:te, ": 6909,
  "w:live": 6910,
  "c:hings": 6911,
  "c:d he": 6912,
  "c:gs.>": 6913,
  "c: as t": 6914,
  "c:peed": 6915,
  "c:speed": 6916,
  "c:ects,": 6917,
  "c:cient": 6918,
  "c:vity ": 6919,
  "c:c>": 6920,
  "c:type": 6921,
  "c:uati": 6922,
  "c:hig": 6923,
  "c:high": 6924,
  "c:xt ": 6925,
  "c:bita": 6926,
  "c:s, wh": 6927,
  "c:e by ": 6928,
  "c:cat ": 6929,
  "c:s a>": 6930,
  "w:smpl": 6931,
  "c:ety": 6932,
  "c:tity ": 6933,
  "c:ped ": 6934,
  "c:iple": 6935,
  "c:r tim": 6936,
  "c:em t": 6937,
  "c:liti": 6938,
  "c:manc": 6939,
  "c:n so": 6940,
  "c:hesi": 6941,
  "c:, but": 6942,
  "c:en c": 6943,
  "c: name": 6944,
  "c:seas": 6945,
  "c:d man": 6946,
  "c:mper": 6947,
  "c:gna": 6948,
  "c: open": 6949,
  "c:at d": 6950,
  "c:. c": 6951,
  "c:quen": 6952,
  "c:rity": 6953,
  "c:an u": 6954,
  "c:tems.": 6955,
  "c:o ma": 6956,
  "c:mph": 6957,
  "c:ota": 6958,
  "c:s, co": 6959,
  "c:sym": 6960,
  "w:story": 6961,
  "c:r en": 6962,
  "c:re a ": 6963,
  "c:im ": 6964,
  "c:rob": 6965,
  "c:y for": 6966,
  "c:ogi": 6967,
  "c:logi": 6968,
  "c:s a g": 6969,
  "c:or h": 6970,
  "c:verse": 6971,
  "c:nvo": 6972,
  "c:nvol": 6973,
  "c:ls an": 6974,
  "c:ited": 6975,
  "c:ic d": 6976,
  "c:tens": 6977,
  "c:oor": 6978,
  "c:r exp": 6979,
  "c:igna": 6980,
  "c:signa": 6981,
  "w:important_because_it": 6982,
  "c:equen": 6983,
  "c: key": 6984,
  "c:phi": 6985,
  "c:nd of": 6986,
  "c: clim": 6987,
  "c:fie": 6988,
  "c:tial ": 6989,
  "c:et is": 6990,
  "c:cif": 6991,
  "c:cifi": 6992,
  "c:ests": 6993,
  "c:smpl ": 6994,
  "c:s br": 6995,
  "c:reda": 6996,
  "c:edat": 6997,
  "c:preda": 6998,
  "c:redat": 6999,
  "c:nr": 7000,
  "c:d, a": 7001,
  "c:nest": 7002,
  "c:ht,": 7003,
  "c:y on": 7004,
  "c:eel ": 7005,
  "c:a lo": 7006,
  "c:r wa": 7007,
  "c:d use": 7008,
  "c:t tr": 7009,
  "c: liq": 7010,
  "c: liqu": 7011,
  "c:ige": 7012,
  "c: plat": 7013,
  "c:p is ": 7014,
  "c:oki": 7015,
  "c:by a": 7016,
  "c:somet": 7017,
  "c: bef": 7018,
  "c: befo": 7019,
  "w:the_unlim8ted": 7020,
  "c:l, c": 7021,
  "c:g, s": 7022,
  "c:sonal": 7023,
  "c: or v": 7024,
  "c:he>": 7025,
  "c:the>": 7026,
  "c: the>": 7027,
  "c:cific": 7028,
  "c:nt c": 7029,
  "c:ch i": 7030,
  "c: ye": 7031,
  "c:y wh": 7032,
  "c:als.>": 7033,
  "c:ive i": 7034,
  "c:e at": 7035,
  "c:ng co": 7036,
  "c:cal e": 7037,
  "c:ss.": 7038,
  "w:or_other": 7039,
  "c:to st": 7040,
  "c:ent a": 7041,
  "w:vehicle": 7042,
  "c:g it": 7043,
  "c:ng it": 7044,
  "c:dien": 7045,
  "c:ts m": 7046,
  "c:deci": 7047,
  "c:ooki": 7048,
  "c:lores": 7049,
  "c:cts.": 7050,
  "c:fy": 7051,
  "c:ugh t": 7052,
  "c: conf": 7053,
  "c:cally": 7054,
  "c:eam": 7055,
  "c:nges ": 7056,
  "c:elem": 7057,
  "c:eleme": 7058,
  "c:e gro": 7059,
  "c:rev": 7060,
  "c: repe": 7061,
  "c:gni": 7062,
  "c:orman": 7063,
  "c: cau": 7064,
  "c:gic": 7065,
  "c:zz": 7066,
  "c:servi": 7067,
  "c:e ne": 7068,
  "c:y, c": 7069,
  "c:s sh": 7070,
  "c:uts": 7071,
  "c:r-": 7072,
  "c:nt th": 7073,
  "c: by a": 7074,
  "c: hig": 7075,
  "c: high": 7076,
  "c:a br": 7077,
  "w:before": 7078,
  "w:explores": 7079,
  "c:ng, s": 7080,
  "c:take": 7081,
  "c: eas": 7082,
  "c:erate": 7083,
  "c:icall": 7084,
  "c:arb": 7085,
  "w:place": 7086,
  "c:ocat": 7087,
  "c:locat": 7088,
  "c:aj": 7089,
  "c:ildi": 7090,
  "c:uildi": 7091,
  "c:ildin": 7092,
  "c: elem": 7093,
  "c:-d": 7094,
  "c:exa": 7095,
  "c:book ": 7096,
  "c:g of ": 7097,
  "c:lps m": 7098,
  "c:ps ma": 7099,
  "c:f li": 7100,
  "c: is h": 7101,
  "c:phone": 7102,
  "c:sten": 7103,
  "c:eact": 7104,
  "c:react": 7105,
  "c: fac": 7106,
  "c:t, or": 7107,
  "c:y be": 7108,
  "c: shi": 7109,
  "c:epre": 7110,
  "c:epres": 7111,
  "c:ric ": 7112,
  "w:form": 7113,
  "c:fore ": 7114,
  "c: maki": 7115,
  "c:y are": 7116,
  "c:tego": 7117,
  "c:categ": 7118,
  "c:atego": 7119,
  "c:tegor": 7120,
  "c: mn": 7121,
  "c: mou": 7122,
  "c:l li": 7123,
  "c:ape ": 7124,
  "c:fis": 7125,
  "c:fish": 7126,
  "c:h h": 7127,
  "c:rib": 7128,
  "c:s en": 7129,
  "c:ct.>": 7130,
  "c:asure": 7131,
  "c:aine": 7132,
  "c:sr": 7133,
  "c:ung": 7134,
  "c:-l": 7135,
  "c:l to ": 7136,
  "c:new": 7137,
  "c:en is": 7138,
  "c:seeds": 7139,
  "c:es be": 7140,
  "c:at re": 7141,
  "c:oic": 7142,
  "c:s sur": 7143,
  "c:d ho": 7144,
  "c:raini": 7145,
  "c: meta": 7146,
  "c:ow t": 7147,
  "c:er be": 7148,
  "c:ait": 7149,
  "c:mes,": 7150,
  "c:mes, ": 7151,
  "c:rva": 7152,
  "c:ns, a": 7153,
  "c:nthes": 7154,
  "c:thesi": 7155,
  "c:e, c": 7156,
  "c:om i": 7157,
  "c: tur": 7158,
  "c:e cen": 7159,
  "c:n con": 7160,
  "c:is f": 7161,
  "c:-a": 7162,
  "c:he id": 7163,
  "c:less": 7164,
  "c:ar t": 7165,
  "c:ptat": 7166,
  "c:ptati": 7167,
  "c:ecu": 7168,
  "c:he se": 7169,
  "c:e thr": 7170,
  "c:nt p": 7171,
  "c:old ": 7172,
  "c:s bu": 7173,
  "c:a pa": 7174,
  "c: tree": 7175,
  "c:nt in": 7176,
  "c:ods ": 7177,
  "c: caus": 7178,
  "c:ht, ": 7179,
  "c:ampl": 7180,
  "c:at l": 7181,
  "c:nes,": 7182,
  "c:rs th": 7183,
  "w:part_of": 7184,
  "c:invo": 7185,
  "c: invo": 7186,
  "c:invol": 7187,
  "c: to d": 7188,
  "c:ssoc": 7189,
  "c:ssoci": 7190,
  "c:ociat": 7191,
  "c:, pla": 7192,
  "c:d ot": 7193,
  "c:d oth": 7194,
  "c:matic": 7195,
  "c:or an": 7196,
  "c:aptat": 7197,
  "c:cea": 7198,
  "c:eno": 7199,
  "c:sci": 7200,
  "c:orms ": 7201,
  "c:re, a": 7202,
  "c:pur": 7203,
  "c:he pl": 7204,
  "c:opul": 7205,
  "c:ski": 7206,
  "c:inl": 7207,
  "c:r al": 7208,
  "c:nes, ": 7209,
  "c:np": 7210,
  "c:nvolv": 7211,
  "c:ciate": 7212,
  "c:d, or": 7213,
  "c:erio": 7214,
  "c:s ne": 7215,
  "c:lds": 7216,
  "c:g, or": 7217,
  "c:ied": 7218,
  "c:nshi": 7219,
  "c:nship": 7220,
  "c:terns": 7221,
  "c: s s": 7222,
  "c:sug": 7223,
  "c:ecor": 7224,
  "c:eing": 7225,
  "c:dw": 7226,
  "c:an or": 7227,
  "c: two": 7228,
  "c:y pl": 7229,
  "w:book": 7230,
  "c:rder": 7231,
  "c: cov": 7232,
  "c:rne": 7233,
  "c:ed'": 7234,
  "c:ed's": 7235,
  "c:raw": 7236,
  "c: coun": 7237,
  "c:amou": 7238,
  "c: you ": 7239,
  "c:gnal": 7240,
  "c:ignal": 7241,
  "c: only": 7242,
  "c:re b": 7243,
  "c:of d": 7244,
  "c: of d": 7245,
  "c: a di": 7246,
  "c:lude ": 7247,
  "c:ots": 7248,
  "c:ives ": 7249,
  "c:is e": 7250,
  "w:on_the": 7251,
  "c: mt": 7252,
  "c:emb": 7253,
  "c:rbo": 7254,
  "c: a ch": 7255,
  "c:abita": 7256,
  "c:maj": 7257,
  "c: it c": 7258,
  "c:ght,": 7259,
  "c:ted'": 7260,
  "c:8ted'": 7261,
  "c:ted's": 7262,
  "c:ed's ": 7263,
  "w:unlim8ted's": 7264,
  "c:items": 7265,
  "c:disp": 7266,
  "c:divi": 7267,
  "w:is_a_device": 7268,
  "c:r s ": 7269,
  "c:fe.": 7270,
  "c: back": 7271,
  "c:, ch": 7272,
  "c: sug": 7273,
  "c: saf": 7274,
  "c: safe": 7275,
  "c:s inc": 7276,
  "w:include": 7277,
  "c:hat o": 7278,
  "c:ge is": 7279,
  "c:e si": 7280,
  "c:<no": 7281,
  "c:nsw": 7282,
  "c:ain i": 7283,
  "c:d-": 7284,
  "c:ajo": 7285,
  "c:jor": 7286,
  "c:majo": 7287,
  "c:ajor": 7288,
  "c:major": 7289,
  "w:major": 7290,
  "c:n wa": 7291,
  "c:<ch": 7292,
  "c:er ti": 7293,
  "c: sce": 7294,
  "c: scen": 7295,
  "c:ts r": 7296,
  "c:rmanc": 7297,
  "c:ngs.": 7298,
  "c:ples": 7299,
  "c:ense ": 7300,
  "c:asso": 7301,
  "c: asso": 7302,
  "c:assoc": 7303,
  "w:for_a": 7304,
  "c:l wit": 7305,
  "c:st a": 7306,
  "c:para": 7307,
  "c:pear": 7308,
  "c:ppear": 7309,
  "c:eatio": 7310,
  "c:t fro": 7311,
  "c:t un": 7312,
  "c:ct w": 7313,
  "w:only": 7314,
  "c:oryt": 7315,
  "c:ryte": 7316,
  "c:ytel": 7317,
  "c:toryt": 7318,
  "c:oryte": 7319,
  "c:rytel": 7320,
  "c:ytell": 7321,
  "c:repre": 7322,
  "c:rbi": 7323,
  "c:n wit": 7324,
  "c:r vi": 7325,
  "c:ion f": 7326,
  "c: mem": 7327,
  "c:lose": 7328,
  "c:ntere": 7329,
  "c:jor ": 7330,
  "c:ajor ": 7331,
  "c:<un": 7332,
  "c:n art": 7333,
  "c:orde": 7334,
  "c: cove": 7335,
  "w:animals": 7336,
  "c:thy ": 7337,
  "c:mpos": 7338,
  "c:n li": 7339,
  "c:s tra": 7340,
  "c:leng": 7341,
  "c:, po": 7342,
  "c:egu": 7343,
  "c:ht t": 7344,
  "c:wav": 7345,
  "c:wave": 7346,
  "c:isibl": 7347,
  "c:t ve": 7348,
  "c: or l": 7349,
  "c:hat r": 7350,
  "c:t on": 7351,
  "c: def": 7352,
  "c:ext ": 7353,
  "c: sec": 7354,
  "c:h and": 7355,
  "c:dv": 7356,
  "c:g tha": 7357,
  "c:ked": 7358,
  "c: maj": 7359,
  "c:en p": 7360,
  "c:thm": 7361,
  "c:ibe": 7362,
  "c:eggs": 7363,
  "c:in o": 7364,
  "c:ainl": 7365,
  "c:rame": 7366,
  "c:spl": 7367,
  "c: div": 7368,
  "c:enin": 7369,
  "c:l h": 7370,
  "c:dle": 7371,
  "c:db": 7372,
  "c:is w": 7373,
  "c:k a": 7374,
  "c:ise ": 7375,
  "c:gat": 7376,
  "c:cean": 7377,
  "c:oice": 7378,
  "c:a.>": 7379,
  "c:rly ": 7380,
  "c: is e": 7381,
  "c:maint": 7382,
  "c:ecif": 7383,
  "c:pecif": 7384,
  "c:ecifi": 7385,
  "c: majo": 7386,
  "c:, sh": 7387,
  "w:changes": 7388,
  "c:ow i": 7389,
  "c:inly": 7390,
  "c:ainly": 7391,
  "c:d li": 7392,
  "c:movin": 7393,
  "c: fram": 7394,
  "c:is is": 7395,
  "w:ability_to": 7396,
  "c:ited ": 7397,
  "c:eld": 7398,
  "c:<n s": 7399,
  "c:ife.": 7400,
  "c:life.": 7401,
  "w:life.": 7402,
  "c:ed co": 7403,
  "c:, li": 7404,
  "c:gs an": 7405,
  "c:mf": 7406,
  "c:al th": 7407,
  "c:ses.": 7408,
  "c:ly m": 7409,
  "c:yers ": 7410,
  "c:is a>": 7411,
  "c:ct s": 7412,
  "c:n fr": 7413,
  "c:on to": 7414,
  "c:fers": 7415,
  "c:of li": 7416,
  "c:hos": 7417,
  "c:ght, ": 7418,
  "c:hesis": 7419,
  "c:cal i": 7420,
  "c:s str": 7421,
  "w:related": 7422,
  "c:cy is": 7423,
  "c:t mo": 7424,
  "c:vide ": 7425,
  "c:n use": 7426,
  "c:by s": 7427,
  "c:ays ": 7428,
  "c:onsh": 7429,
  "c:ionsh": 7430,
  "c:onshi": 7431,
  "c:-t": 7432,
  "c: or b": 7433,
  "c:ps,": 7434,
  "c:ps, ": 7435,
  "c:en th": 7436,
  "c:eeli": 7437,
  "c:eelin": 7438,
  "c:dato": 7439,
  "c:dator": 7440,
  "c:rpo": 7441,
  "c:l pro": 7442,
  "c:iple ": 7443,
  "c:ic s": 7444,
  "c:equi": 7445,
  "c: spr": 7446,
  "c:tosy": 7447,
  "c:osyn": 7448,
  "c:otosy": 7449,
  "c:tosyn": 7450,
  "c:osynt": 7451,
  "c:-r": 7452,
  "c:onsi": 7453,
  "c:h in": 7454,
  "c:ixe": 7455,
  "c:ce u": 7456,
  "c:regu": 7457,
  "c:egul": 7458,
  "c:regul": 7459,
  "c:egula": 7460,
  "c:he ce": 7461,
  "c:ells ": 7462,
  "c:gy is": 7463,
  "c:nd ot": 7464,
  "c:l en": 7465,
  "c:ce s": 7466,
  "c:t ver": 7467,
  "c:row ": 7468,
  "c:s gr": 7469,
  "c:ves a": 7470,
  "c:afte": 7471,
  "c:sign ": 7472,
  "c:o g": 7473,
  "c:th.>": 7474,
  "c:iew": 7475,
  "c:view": 7476,
  "c:ss is": 7477,
  "c:edato": 7478,
  "c:warm": 7479,
  "c:capt": 7480,
  "c: capt": 7481,
  "c:iec": 7482,
  "c:piec": 7483,
  "c:iece": 7484,
  "c:piece": 7485,
  "c:neti": 7486,
  "c:pop": 7487,
  "c:ed as": 7488,
  "w:feel": 7489,
  "c:e exp": 7490,
  "c:owl": 7491,
  "c:tors ": 7492,
  "w:are_important": 7493,
  "c:of o": 7494,
  "c: base": 7495,
  "c:fter": 7496,
  "c:ols ": 7497,
  "c:, fo": 7498,
  "c:y tha": 7499,
  "c:ithi": 7500,
  "c:withi": 7501,
  "c:ithin": 7502,
  "c:earl": 7503,
  "c:arly": 7504,
  "c:esses": 7505,
  "c:ist ": 7506,
  "c:lex": 7507,
  "c:arc": 7508,
  "c:mage ": 7509,
  "c: ox": 7510,
  "c: piec": 7511,
  "c: roc": 7512,
  "c: rock": 7513,
  "c:e ins": 7514,
  "c:<bi": 7515,
  "c:gy,": 7516,
  "c:rees": 7517,
  "c:mainl": 7518,
  "c:inly ": 7519,
  "c:or al": 7520,
  "c:ample": 7521,
  "c: tru": 7522,
  "c: disp": 7523,
  "c:cs t": 7524,
  "c:hal": 7525,
  "c:ening": 7526,
  "c:e mov": 7527,
  "c:ocial": 7528,
  "c: is f": 7529,
  "c: new": 7530,
  "c: trm": 7531,
  "c:es us": 7532,
  "c:a mor": 7533,
  "c:adin": 7534,
  "c:al b": 7535,
  "c:pire": 7536,
  "c:sive ": 7537,
  "w:star": 7538,
  "c:h of ": 7539,
  "c:bei": 7540,
  "c:bein": 7541,
  "c:being": 7542,
  "c:ey ar": 7543,
  "c: pass": 7544,
  "c:eels": 7545,
  "c:e ea": 7546,
  "c:list": 7547,
  "c:e le": 7548,
  "c: eggs": 7549,
  "c:ntern": 7550,
  "w:mainly": 7551,
  "c:cente": 7552,
  "c:g pl": 7553,
  "c:ng pl": 7554,
  "c:y s ": 7555,
  "c:feel ": 7556,
  "c:oup ": 7557,
  "c:ching": 7558,
  "c:al an": 7559,
  "c:iated": 7560,
  "c:sil": 7561,
  "c:r com": 7562,
  "c:o mo": 7563,
  "c:me s": 7564,
  "c:or de": 7565,
  "c: of o": 7566,
  "c:untr": 7567,
  "c:ountr": 7568,
  "c:ented": 7569,
  "c:erenc": 7570,
  "c:rence": 7571,
  "c:udie": 7572,
  "c: tak": 7573,
  "c: a li": 7574,
  "c:s n ": 7575,
  "c:h st": 7576,
  "c:ter b": 7577,
  "c:opm": 7578,
  "c:lopm": 7579,
  "c:opme": 7580,
  "c:elopm": 7581,
  "c:lopme": 7582,
  "c:opmen": 7583,
  "c:d ph": 7584,
  "c:a pi": 7585,
  "c:opula": 7586,
  "c:gy, ": 7587,
  "c: on s": 7588,
  "c:l g": 7589,
  "c:mance": 7590,
  "c:achi": 7591,
  "c:n sh": 7592,
  "c:stio": 7593,
  "c:stion": 7594,
  "c:t sha": 7595,
  "c:8ted.": 7596,
  "c:s cr": 7597,
  "c:al st": 7598,
  "c:empe": 7599,
  "c:emper": 7600,
  "c:pl t": 7601,
  "c:trms": 7602,
  "w:provide": 7603,
  "c: by s": 7604,
  "c:volve": 7605,
  "c:ve p": 7606,
  "c:star ": 7607,
  "c:gle": 7608,
  "c:cord": 7609,
  "w:within": 7610,
  "c:hand": 7611,
  "c:em.": 7612,
  "c:bitat": 7613,
  "c:d po": 7614,
  "c:edia": 7615,
  "c:d pl": 7616,
  "c:media": 7617,
  "c: pur": 7618,
  "c:umen": 7619,
  "c:s a n": 7620,
  "c:ument": 7621,
  "c:en f": 7622,
  "c:ted i": 7623,
  "c:ere a": 7624,
  "c: dow": 7625,
  "c: down": 7626,
  "c:popu": 7627,
  "c:popul": 7628,
  "c:y, or": 7629,
  "c:c f": 7630,
  "c:ng>": 7631,
  "c:lde": 7632,
  "c:isten": 7633,
  "c:ben": 7634,
  "c: cul": 7635,
  "c:llen": 7636,
  "c:ner ": 7637,
  "w:associated": 7638,
  "c:n me": 7639,
  "c:raft": 7640,
  "c:imu": 7641,
  "c:pl tr": 7642,
  "c: trms": 7643,
  "c: ki": 7644,
  "c:ort v": 7645,
  "c: aft": 7646,
  "c: afte": 7647,
  "c:after": 7648,
  "c:c t": 7649,
  "c:ess,": 7650,
  "c:ess, ": 7651,
  "c:er d": 7652,
  "c:tail": 7653,
  "c:ler ": 7654,
  "c:o,": 7655,
  "c:os ": 7656,
  "c:nol": 7657,
  "c:ptur": 7658,
  "c:eso": 7659,
  "c:rtic": 7660,
  "c:opp": 7661,
  "c:ompos": 7662,
  "w:explanation": 7663,
  "c:utp": 7664,
  "c:outp": 7665,
  "w:clear": 7666,
  "c:om a": 7667,
  "c:er of": 7668,
  "c:tensi": 7669,
  "c:p c": 7670,
  "c:se s": 7671,
  "c:ns th": 7672,
  "w:and_other": 7673,
  "c:<n sm": 7674,
  "c:n smp": 7675,
  "c:okin": 7676,
  "c:oking": 7677,
  "c:mula": 7678,
  "c:ories": 7679,
  "c:ctin": 7680,
  "c:cting": 7681,
  "c:ems.>": 7682,
  "c:alan": 7683,
  "c:alanc": 7684,
  "c:affe": 7685,
  "c:or.": 7686,
  "c: nl": 7687,
  "c:m w": 7688,
  "c:d pre": 7689,
  "c:feeli": 7690,
  "c:tiple": 7691,
  "c:ymb": 7692,
  "c:symb": 7693,
  "c:s po": 7694,
  "c: or g": 7695,
  "c:role": 7696,
  "c:narr": 7697,
  "c: cult": 7698,
  "c:le u": 7699,
  "c:nd en": 7700,
  "c:y di": 7701,
  "c:ined ": 7702,
  "c:le f": 7703,
  "c:tempe": 7704,
  "c:mpera": 7705,
  "c:mpl t": 7706,
  "c:l trm": 7707,
  "c:trms,": 7708,
  "w:trms,": 7709,
  "w:n_smpl": 7710,
  "w:smpl_trms,": 7711,
  "w:n_smpl_trms,": 7712,
  "c:task": 7713,
  "c:uci": 7714,
  "c:for m": 7715,
  "c:<mo": 7716,
  "c:ookin": 7717,
  "w:the_short": 7718,
  "c:lves ": 7719,
  "c:t ch": 7720,
  "c:mit": 7721,
  "c:lima": 7722,
  "w:tool": 7723,
  "c:bala": 7724,
  "c:balan": 7725,
  "c:giv": 7726,
  "c: add": 7727,
  "c:r str": 7728,
  "c:he wa": 7729,
  "c:nsu": 7730,
  "c:idin": 7731,
  "c:iding": 7732,
  "c:is re": 7733,
  "c:rnat": 7734,
  "c:ernat": 7735,
  "c:as p": 7736,
  "c: a ga": 7737,
  "c: alt": 7738,
  "c:le b": 7739,
  "c:is d": 7740,
  "c:th d": 7741,
  "c: ever": 7742,
  "c:siste": 7743,
  "c:tpu": 7744,
  "c:utpu": 7745,
  "c:tput": 7746,
  "c: outp": 7747,
  "c:outpu": 7748,
  "c:utput": 7749,
  "c:t com": 7750,
  "c:o, ": 7751,
  "c:lina": 7752,
  "c:err": 7753,
  "c:e no": 7754,
  "c:appl": 7755,
  "c:a sc": 7756,
  "c: is w": 7757,
  "c:ole ": 7758,
  "c:rtif": 7759,
  "c:oke": 7760,
  "c:der o": 7761,
  "c:s bot": 7762,
  "c:erta": 7763,
  "c:rtai": 7764,
  "c:ertai": 7765,
  "c:rtain": 7766,
  "c:phas": 7767,
  "c:g on ": 7768,
  "c:ce f": 7769,
  "c:ion s": 7770,
  "c:nd ex": 7771,
  "c:de of": 7772,
  "c:ts w": 7773,
  "c:s. i": 7774,
  "c:, ex": 7775,
  "c:reso": 7776,
  "c: a fl": 7777,
  "c: role": 7778,
  "c:istin": 7779,
  "c: qui": 7780,
  "c:rns ": 7781,
  "c:m an": 7782,
  "c: posi": 7783,
  "w:associated_with": 7784,
  "c:hold": 7785,
  "c:es d": 7786,
  "c:gh a": 7787,
  "c:y, p": 7788,
  "c:ratu": 7789,
  "c:he in": 7790,
  "c:, ima": 7791,
  "c: deci": 7792,
  "c:rt ve": 7793,
  "w:version_is": 7794,
  "c:mas": 7795,
  "c:tool ": 7796,
  "c:ranc": 7797,
  "c:th an": 7798,
  "w:for_their": 7799,
  "c:foun": 7800,
  "c:found": 7801,
  "c:d thr": 7802,
  "c:nd ho": 7803,
  "c:stry ": 7804,
  "c:g pr": 7805,
  "c:eral ": 7806,
  "c:p,": 7807,
  "c:nolo": 7808,
  "c:nolog": 7809,
  "w:multiple": 7810,
  "c:ion m": 7811,
  "c: x": 7812,
  "c:lows": 7813,
  "c:netic": 7814,
  "c:is he": 7815,
  "c:ms si": 7816,
  "c:imm": 7817,
  "c:riou": 7818,
  "c:rious": 7819,
  "c:every": 7820,
  "c:n ca": 7821,
  "c:ss a": 7822,
  "c:es r": 7823,
  "c:age i": 7824,
  "w:need": 7825,
  "c:en b": 7826,
  "c:r wo": 7827,
  "c:odie": 7828,
  "c:ecis": 7829,
  "c: task": 7830,
  "c:ut i": 7831,
  "c:cooki": 7832,
  "c:eadi": 7833,
  "w:short_version": 7834,
  "w:the_short_version": 7835,
  "w:short_version_is": 7836,
  "w:version_is_this": 7837,
  "c:ure.>": 7838,
  "c:clima": 7839,
  "c:st,": 7840,
  "w:making": 7841,
  "c: a pe": 7842,
  "c:cesse": 7843,
  "c:fol": 7844,
  "c:, wo": 7845,
  "c:rs o": 7846,
  "c:voi": 7847,
  "c:<th ": 7848,
  "c: in c": 7849,
  "c:her a": 7850,
  "c:fri": 7851,
  "c:ls, a": 7852,
  "c:pace ": 7853,
  "c:ass ": 7854,
  "c:ct a": 7855,
  "c: exa": 7856,
  "c:y li": 7857,
  "c:a si": 7858,
  "c:ight,": 7859,
  "c:ques": 7860,
  "c:nami": 7861,
  "c:ms ar": 7862,
  "c:a stu": 7863,
  "c:ce us": 7864,
  "c:ctn": 7865,
  "c:very ": 7866,
  "w:that_can": 7867,
  "c:to mo": 7868,
  "c:r ch": 7869,
  "c:age,": 7870,
  "c:vices": 7871,
  "c:e sta": 7872,
  "c:eratu": 7873,
  "c:ratur": 7874,
  "c:new ": 7875,
  "w:the_idea": 7876,
  "c:cree": 7877,
  "c:quenc": 7878,
  "c: rai": 7879,
  "c:-i": 7880,
  "c:ocea": 7881,
  "c:ocean": 7882,
  "c:s, pr": 7883,
  "c:tle ": 7884,
  "c:tes.": 7885,
  "c:pln": 7886,
  "c:o cr": 7887,
  "c:fers ": 7888,
  "c:ings.": 7889,
  "c:y pro": 7890,
  "c:ve w": 7891,
  "c:e spe": 7892,
  "c:a ne": 7893,
  "c:e vi": 7894,
  "c:an c": 7895,
  "c:need ": 7896,
  "c:linat": 7897,
  "c:<a h": 7898,
  "w:new": 7899,
  "c:ter t": 7900,
  "c:e sto": 7901,
  "c:ired ": 7902,
  "c:fter ": 7903,
  "c:ero": 7904,
  "c:sics ": 7905,
  "c:cts.>": 7906,
  "c:bes": 7907,
  "c: ed": 7908,
  "c:n org": 7909,
  "c:p, ": 7910,
  "c:ky": 7911,
  "c: sym": 7912,
  "c:uth": 7913,
  "c:drive": 7914,
  "c:to o": 7915,
  "c:ons. ": 7916,
  "c:<plan": 7917,
  "c:as,": 7918,
  "c:as, ": 7919,
  "c:lder": 7920,
  "c:y inc": 7921,
  "c:e bu": 7922,
  "w:sound": 7923,
  "c:, to": 7924,
  "c:eacti": 7925,
  "c:ces a": 7926,
  "c:r int": 7927,
  "c:spon": 7928,
  "c:age, ": 7929,
  "c:rte": 7930,
  "w:long": 7931,
  "c: new ": 7932,
  "c:tfo": 7933,
  "c:nem": 7934,
  "c:tract": 7935,
  "c:n ac": 7936,
  "c:ay a": 7937,
  "c:curr": 7938,
  "c:ct d": 7939,
  "c:imul": 7940,
  "c:emis": 7941,
  "c:ade f": 7942,
  "c:n un": 7943,
  "c:d pa": 7944,
  "c: wing": 7945,
  "c:net ": 7946,
  "c:hun": 7947,
  "c: foun": 7948,
  "c: fly": 7949,
  "c:oy": 7950,
  "w:physics": 7951,
  "w:make_the": 7952,
  "c:xyg": 7953,
  "c: hol": 7954,
  "w:that_helps": 7955,
  "c: pop": 7956,
  "c:trees": 7957,
  "c:roup ": 7958,
  "w:group": 7959,
  "c:polli": 7960,
  "c:llina": 7961,
  "c:aliz": 7962,
  "c:scree": 7963,
  "c:ush": 7964,
  "w:after": 7965,
  "w:design": 7966,
  "c:ntif": 7967,
  "w:set": 7968,
  "w:they_are": 7969,
  "c:lla": 7970,
  "c:answ": 7971,
  "c:nswe": 7972,
  "c:swer": 7973,
  "c:answe": 7974,
  "c:nswer": 7975,
  "c:f b": 7976,
  "c:scri": 7977,
  "c:on p": 7978,
  "c:ve c": 7979,
  "w:sim": 7980,
  "w:organisms_sim": 7981,
  "c:icu": 7982,
  "c:icul": 7983,
  "c:on a ": 7984,
  "c:y mo": 7985,
  "c:e we": 7986,
  "c:y de": 7987,
  "c:dc": 7988,
  "c:nni": 7989,
  "c:ace.>": 7990,
  "c:iod": 7991,
  "c:sses ": 7992,
  "c:lize": 7993,
  "c:owers": 7994,
  "c:owt": 7995,
  "c:rowt": 7996,
  "c:owth": 7997,
  "c:growt": 7998,
  "c:rowth": 7999,
  "c:t sm": 8000,
  "c:ses,": 8001,
  "c:ses, ": 8002,
  "c:ied ": 8003,
  "c:o u": 8004,
  "c:ive a": 8005,
  "c:d ha": 8006,
  "c:y ha": 8007,
  "c:artif": 8008,
  "c:le w": 8009,
  "c:nging": 8010,
  "c:, wat": 8011,
  "c: giv": 8012,
  "c:nder ": 8013,
  "c: ans": 8014,
  "c: answ": 8015,
  "c:ng pr": 8016,
  "c:weat": 8017,
  "c: emp": 8018,
  "c: cit": 8019,
  "c:clos": 8020,
  "c:sd ": 8021,
  "c:cies ": 8022,
  "c:ed ma": 8023,
  "c:came": 8024,
  "c:s, h": 8025,
  "c:ut t": 8026,
  "c: let": 8027,
  "c:day ": 8028,
  "c:h pr": 8029,
  "c: she": 8030,
  "c:ugh a": 8031,
  "c:feed": 8032,
  "c:ted m": 8033,
  "c: type": 8034,
  "c:creen": 8035,
  "c:mbo": 8036,
  "c: han": 8037,
  "c:efi": 8038,
  "c:unt ": 8039,
  "c:he br": 8040,
  "c:un ": 8041,
  "c:ath ": 8042,
  "c:e ti": 8043,
  "c:hni": 8044,
  "c:at f": 8045,
  "c:dge": 8046,
  "c:es fo": 8047,
  "c:st o": 8048,
  "c:arbo": 8049,
  "c:e nu": 8050,
  "c:n pro": 8051,
  "c:educe": 8052,
  "c:th f": 8053,
  "c:cene": 8054,
  "c:scene": 8055,
  "c: reso": 8056,
  "c: popu": 8057,
  "c:req": 8058,
  "c:requ": 8059,
  "c:zl": 8060,
  "c:alte": 8061,
  "c:alter": 8062,
  "c:oad ": 8063,
  "c:, pa": 8064,
  "c:mnt": 8065,
  "c:avor": 8066,
  "c: eq": 8067,
  "c: equ": 8068,
  "c:wo ": 8069,
  "c:two ": 8070,
  "c: two ": 8071,
  "w:two": 8072,
  "c:dog": 8073,
  "w:social": 8074,
  "c:pect": 8075,
  "c:of r": 8076,
  "c: of r": 8077,
  "c:rct": 8078,
  "c:al en": 8079,
  "c: scre": 8080,
  "c:cl ": 8081,
  "c:nea": 8082,
  "c:orin": 8083,
  "c:eadin": 8084,
  "w:play": 8085,
  "c:-in": 8086,
  "c:st, ": 8087,
  "c: aff": 8088,
  "c:al fo": 8089,
  "c:ller": 8090,
  "c:dt": 8091,
  "c:ntly": 8092,
  "c:t mat": 8093,
  "c:ilm ": 8094,
  "c:film ": 8095,
  "w:film": 8096,
  "c:urp": 8097,
  "c:vati": 8098,
  "c:hno": 8099,
  "c:chno": 8100,
  "c:echno": 8101,
  "c:ve in": 8102,
  "c:to cr": 8103,
  "c:sim ": 8104,
  "c: sim ": 8105,
  "c:ograp": 8106,
  "c:zzl": 8107,
  "c:tn s ": 8108,
  "c:amer": 8109,
  "c:anti": 8110,
  "c:e foo": 8111,
  "c:orat": 8112,
  "c:al to": 8113,
  "c:ems a": 8114,
  "c:d sy": 8115,
  "c:oring": 8116,
  "c:e way": 8117,
  "c:cine": 8118,
  "c:vents": 8119,
  "c:rtifi": 8120,
  "c:limat": 8121,
  "c:son ": 8122,
  "c:entif": 8123,
  "c: ow": 8124,
  "c:a su": 8125,
  "c:our ": 8126,
  "c:ust ": 8127,
  "c:lia": 8128,
  "c:rect ": 8129,
  "w:identity": 8130,
  "c: fre": 8131,
  "c:hnol": 8132,
  "c:chnol": 8133,
  "c:hnolo": 8134,
  "c:, mu": 8135,
  "c:r sp": 8136,
  "w:species": 8137,
  "c:se m": 8138,
  "c:artic": 8139,
  "c:ntia": 8140,
  "c:d's n": 8141,
  "c: alte": 8142,
  "c: is d": 8143,
  "c:o ex": 8144,
  "c:rom a": 8145,
  "c:ayi": 8146,
  "c: amo": 8147,
  "c:me is": 8148,
  "c:ea m": 8149,
  "c:espo": 8150,
  "c: appl": 8151,
  "c: tho": 8152,
  "c:y pla": 8153,
  "c:ken": 8154,
  "c:clot": 8155,
  "c:loth": 8156,
  "c:cloth": 8157,
  "c:eight": 8158,
  "c:e sun": 8159,
  "c:red i": 8160,
  "c:ion w": 8161,
  "c:ease ": 8162,
  "c:nd sh": 8163,
  "c:nlm": 8164,
  "c:carb": 8165,
  "c:carbo": 8166,
  "c:a cha": 8167,
  "c:p s": 8168,
  "c:oxy": 8169,
  "c:yge": 8170,
  "c:oxyg": 8171,
  "c:xyge": 8172,
  "c:ygen": 8173,
  "c: ext": 8174,
  "c: a fi": 8175,
  "c:pture": 8176,
  "c:oxyge": 8177,
  "c:xygen": 8178,
  "c:ir s": 8179,
  "c:s wo": 8180,
  "c:ctice": 8181,
  "c:r bo": 8182,
  "c:onse": 8183,
  "c:ogic": 8184,
  "c:logic": 8185,
  "c:ntial": 8186,
  "c:stea": 8187,
  "c:nd is": 8188,
  "c:agin": 8189,
  "w:supports": 8190,
  "c:sions": 8191,
  "c: regu": 8192,
  "c:ayin": 8193,
  "c:aying": 8194,
  "c:in fo": 8195,
  "c: a fo": 8196,
  "c:it a": 8197,
  "c:nvert": 8198,
  "c:an an": 8199,
  "c:oint ": 8200,
  "c:cisi": 8201,
  "c:ecisi": 8202,
  "c:s one": 8203,
  "c:tem i": 8204,
  "c:seq": 8205,
  "c:sequ": 8206,
  "c:seque": 8207,
  "c:s ada": 8208,
  "c: roo": 8209,
  "c:r pe": 8210,
  "c:enes": 8211,
  "c:<so": 8212,
  "c:chni": 8213,
  "c:arry ": 8214,
  "w:carry": 8215,
  "c:c m": 8216,
  "c:l, an": 8217,
  "c:ts l": 8218,
  "c:ogs": 8219,
  "c:instr": 8220,
  "c:vatio": 8221,
  "c:at su": 8222,
  "w:produce": 8223,
  "c:parti": 8224,
  "c:mples": 8225,
  "c:ito": 8226,
  "c:oes": 8227,
  "c:e und": 8228,
  "c:tars": 8229,
  "c:cisio": 8230,
  "c:cal.": 8231,
  "c: fit": 8232,
  "c:re l": 8233,
  "c: line": 8234,
  "c:apes ": 8235,
  "c:st.": 8236,
  "c:angu": 8237,
  "c:isc": 8238,
  "c:nspi": 8239,
  "c:nspir": 8240,
  "c:oves": 8241,
  "c:al li": 8242,
  "c:ngs,": 8243,
  "c:f pl": 8244,
  "c:es. t": 8245,
  "c:y use": 8246,
  "c:s as ": 8247,
  "c:can s": 8248,
  "c:mark": 8249,
  "c:to an": 8250,
  "c:sq": 8251,
  "c:at th": 8252,
  "c:ils": 8253,
  "c:es ho": 8254,
  "c:ds an": 8255,
  "c:nd wa": 8256,
  "c:ly b": 8257,
  "c:ns i": 8258,
  "c:e cre": 8259,
  "c:od i": 8260,
  "c:edic": 8261,
  "c:cal.>": 8262,
  "c:ent s": 8263,
  "c:solv": 8264,
  "w:process_of": 8265,
  "c: hand": 8266,
  "c:ifici": 8267,
  "c:river": 8268,
  "c:imula": 8269,
  "c:mulat": 8270,
  "c: clot": 8271,
  "c:ends": 8272,
  "c:ngs, ": 8273,
  "c:<an e": 8274,
  "c: siz": 8275,
  "c:by t": 8276,
  "c:t so": 8277,
  "c:e pre": 8278,
  "c:icti": 8279,
  "c:, unl": 8280,
  "c:pulat": 8281,
  "w:helps_make": 8282,
  "c:soi": 8283,
  "c:soil": 8284,
  "c: or u": 8285,
  "c:r ph": 8286,
  "w:explanation_is": 8287,
  "w:number": 8288,
  "c:ck i": 8289,
  "c:ged": 8290,
  "c:nive": 8291,
  "c:ak ": 8292,
  "c:nd v": 8293,
  "c:respo": 8294,
  "c:espon": 8295,
  "c:rogr": 8296,
  "c:xtu": 8297,
  "c:is co": 8298,
  "c:n ob": 8299,
  "c:de fr": 8300,
  "c:bor": 8301,
  "c:hee": 8302,
  "w:each": 8303,
  "c: by t": 8304,
  "c:lm8": 8305,
  "c:nlm8": 8306,
  "c: bel": 8307,
  "c:d br": 8308,
  "c:iu": 8309,
  "c:d pla": 8310,
  "c:close": 8311,
  "c:f>": 8312,
  "c:r sy": 8313,
  "c: oxy": 8314,
  "c: oxyg": 8315,
  "w:space": 8316,
  "c:mol": 8317,
  "c:sett": 8318,
  "c:o w": 8319,
  "c:nd he": 8320,
  "c:nt an": 8321,
  "c:ect c": 8322,
  "c:r la": 8323,
  "c:ss.>": 8324,
  "c:ffici": 8325,
  "c:e da": 8326,
  "c:nnin": 8327,
  "c:s mov": 8328,
  "c:nning": 8329,
  "c:ama": 8330,
  "c:ey c": 8331,
  "c:ip ": 8332,
  "w:and_many": 8333,
  "c:ght t": 8334,
  "c:dea m": 8335,
  "c:sks": 8336,
  "c:urces": 8337,
  "c:ical.": 8338,
  "c:alog": 8339,
  "c:gua": 8340,
  "c:s sp": 8341,
  "c:omy": 8342,
  "c: set ": 8343,
  "c:wings": 8344,
  "c: affe": 8345,
  "c:affec": 8346,
  "c:s not": 8347,
  "c:to ma": 8348,
  "c:flu": 8349,
  "c: eac": 8350,
  "c: each": 8351,
  "c:m>": 8352,
  "c:entl": 8353,
  "c:ure o": 8354,
  "c:arks": 8355,
  "c:ts u": 8356,
  "c:s, mo": 8357,
  "c: symb": 8358,
  "c:order": 8359,
  "c: end": 8360,
  "c:poli": 8361,
  "c:entia": 8362,
  "c:ides ": 8363,
  "c:uz": 8364,
  "c:uzz": 8365,
  "c:olde": 8366,
  "c:a gr": 8367,
  "c:s a w": 8368,
  "c:eing ": 8369,
  "c:eatu": 8370,
  "c:eatur": 8371,
  "c:dly": 8372,
  "c:ty, a": 8373,
  "c:stars": 8374,
  "c:fas": 8375,
  "c:er co": 8376,
  "c:ne t": 8377,
  "c:ive s": 8378,
  "c:e ga": 8379,
  "c:y su": 8380,
  "c:insp": 8381,
  "c:ect i": 8382,
  "c:less ": 8383,
  "c:nds o": 8384,
  "c: a ro": 8385,
  "c: hun": 8386,
  "c:efl": 8387,
  "c:rk,": 8388,
  "c:pit": 8389,
  "c:cas": 8390,
  "c:s t ": 8391,
  "c:awa": 8392,
  "c:er e": 8393,
  "c:ial t": 8394,
  "c:his h": 8395,
  "c:eir s": 8396,
  "c:i c": 8397,
  "c:ttl": 8398,
  "c:mic ": 8399,
  "c:achin": 8400,
  "c:es co": 8401,
  "c:hape ": 8402,
  "c:on e": 8403,
  "c: spi": 8404,
  "c:necte": 8405,
  "c:g hi": 8406,
  "c:ng hi": 8407,
  "w:is_useful": 8408,
  "c:tern ": 8409,
  "c:ses a": 8410,
  "c:ies o": 8411,
  "c:or ex": 8412,
  "c:st p": 8413,
  "c:beco": 8414,
  "c: beco": 8415,
  "c:becom": 8416,
  "c:xtur": 8417,
  "c:xture": 8418,
  "c:ture.": 8419,
  "c:t sp": 8420,
  "c:s a v": 8421,
  "c: oce": 8422,
  "c:ences": 8423,
  "c:dies ": 8424,
  "c:e sc": 8425,
  "c:rk, ": 8426,
  "c:lm8t": 8427,
  "c:nlm8t": 8428,
  "c:ate t": 8429,
  "c:sum": 8430,
  "c: ju": 8431,
  "c:bso": 8432,
  "c:m to": 8433,
  "c:es, m": 8434,
  "c:he gr": 8435,
  "c:ock ": 8436,
  "c:at pr": 8437,
  "c:r so": 8438,
  "c: ski": 8439,
  "c:a sta": 8440,
  "c: in p": 8441,
  "w:fr": 8442,
  "c:frame": 8443,
  "c:k w": 8444,
  "c:in e": 8445,
  "c:, cr": 8446,
  "c:ppr": 8447,
  "c:ears ": 8448,
  "c: feed": 8449,
  "w:practical.": 8450,
  "c:, la": 8451,
  "c:ymbo": 8452,
  "c:mbol": 8453,
  "c:symbo": 8454,
  "c:ymbol": 8455,
  "c:ms t": 8456,
  "c:g-": 8457,
  "c:hed ": 8458,
  "c:, fi": 8459,
  "c:on r": 8460,
  "c:nsio": 8461,
  "c:nsion": 8462,
  "c:s pe": 8463,
  "c:ift": 8464,
  "c:ling,": 8465,
  "c:to g": 8466,
  "c:d wat": 8467,
  "c:strat": 8468,
  "c:lee": 8469,
  "c:inal": 8470,
  "c:aptu": 8471,
  "c:captu": 8472,
  "c:aptur": 8473,
  "w:this_helps": 8474,
  "c:ify": 8475,
  "c:ire ": 8476,
  "c:n a s": 8477,
  "c:es fr": 8478,
  "w:moving": 8479,
  "c: nar": 8480,
  "c: narr": 8481,
  "c:draw": 8482,
  "c: rest": 8483,
  "c:s at": 8484,
  "c:res,": 8485,
  "c:res, ": 8486,
  "c:ly e": 8487,
  "c:le an": 8488,
  "c:imal ": 8489,
  "c:ks.": 8490,
  "c:d te": 8491,
  "c:ading": 8492,
  "c:n mo": 8493,
  "c:mix": 8494,
  "c:ence.": 8495,
  "c:uter ": 8496,
  "c: ocea": 8497,
  "c:as th": 8498,
  "c:gory": 8499,
  "c:egory": 8500,
  "c: size": 8501,
  "c:cnt": 8502,
  "c:bers": 8503,
  "c:ptio": 8504,
  "c:ption": 8505,
  "c:sle": 8506,
  "c:abso": 8507,
  "c:n su": 8508,
  "c:, exp": 8509,
  "c:sunl": 8510,
  "c:sunli": 8511,
  "c:erall": 8512,
  "c:cts i": 8513,
  "c:indi": 8514,
  "c:ls th": 8515,
  "c:al or": 8516,
  "c:espe": 8517,
  "c:espec": 8518,
  "c:, sur": 8519,
  "w:visible": 8520,
  "c:r wor": 8521,
  "c:sers": 8522,
  "c:ea mo": 8523,
  "w:idea_more": 8524,
  "w:more_practical.": 8525,
  "w:helps_make_the": 8526,
  "c:vel ": 8527,
  "c:luti": 8528,
  "w:project_that": 8529,
  "c:d oft": 8530,
  "c:o su": 8531,
  "c: take": 8532,
  "w:specific": 8533,
  "c:eva": 8534,
  "c:bb": 8535,
  "c:weath": 8536,
  "c: warm": 8537,
  "c:ly c": 8538,
  "c:radi": 8539,
  "c: sour": 8540,
  "c:efers": 8541,
  "w:refers": 8542,
  "c:rows": 8543,
  "c:g pla": 8544,
  "c:n ea": 8545,
  "c:s, th": 8546,
  "c:a gam": 8547,
  "c:name ": 8548,
  "c:hones": 8549,
  "c:heri": 8550,
  "c:n sp": 8551,
  "c:eter": 8552,
  "c:it.": 8553,
  "c:d mi": 8554,
  "c:m b": 8555,
  "c:pt s": 8556,
  "c: eng": 8557,
  "w:this_helps_make": 8558,
  "w:make_the_idea": 8559,
  "w:the_idea_more": 8560,
  "w:idea_more_practical.": 8561,
  "c:ons o": 8562,
  "c:lutio": 8563,
  "c:ry t": 8564,
  "c:d, an": 8565,
  "c:text ": 8566,
  "c:rts o": 8567,
  "c:f an": 8568,
  "c:als a": 8569,
  "c:se,": 8570,
  "c:se, ": 8571,
  "c:n ch": 8572,
  "c:le m": 8573,
  "c:ssa": 8574,
  "c:yth": 8575,
  "c:s la": 8576,
  "c: a po": 8577,
  "c:o cre": 8578,
  "c:nlig": 8579,
  "c:nligh": 8580,
  "c:real ": 8581,
  "c:zle": 8582,
  "c:zzle": 8583,
  "c:ess.": 8584,
  "c:acks": 8585,
  "c:dete": 8586,
  "c:ion c": 8587,
  "c:d sta": 8588,
  "c:ebs": 8589,
  "c:webs": 8590,
  "c:oxi": 8591,
  "c:an ex": 8592,
  "c:ne,": 8593,
  "c:craf": 8594,
  "c:craft": 8595,
  "c:late ": 8596,
  "c:tfor": 8597,
  "c:ate a": 8598,
  "c: sit": 8599,
  "c:sk ": 8600,
  "c:tac": 8601,
  "c:ngua": 8602,
  "c:ator ": 8603,
  "c:inspi": 8604,
  "c:spire": 8605,
  "c: a sh": 8606,
  "c:gar": 8607,
  "c: wth": 8608,
  "w:that_explores": 8609,
  "c:ce, a": 8610,
  "c:et o": 8611,
  "c:to su": 8612,
  "c:g u": 8613,
  "c:ll b": 8614,
  "c:, en": 8615,
  "c:ccu": 8616,
  "c:a tra": 8617,
  "c:mood": 8618,
  "c:purp": 8619,
  "c:urpo": 8620,
  "c:rpos": 8621,
  "c:purpo": 8622,
  "c:urpos": 8623,
  "c:rpose": 8624,
  "c:vs": 8625,
  "c: in o": 8626,
  "c:ids": 8627,
  "c:ngs.>": 8628,
  "c:uzzl": 8629,
  "c:uzzle": 8630,
  "c: ol": 8631,
  "c:older": 8632,
  "c:uic": 8633,
  "c:spla": 8634,
  "c:es l": 8635,
  "c:rn o": 8636,
  "c:l ma": 8637,
  "c:prog": 8638,
  "c:progr": 8639,
  "c:ries,": 8640,
  "c:th l": 8641,
  "c:usica": 8642,
  "c:ethi": 8643,
  "c:rs s": 8644,
  "c:uag": 8645,
  "c:lang": 8646,
  "c:guag": 8647,
  "c:uage": 8648,
  "c: lang": 8649,
  "c:langu": 8650,
  "c:angua": 8651,
  "c:nguag": 8652,
  "c:guage": 8653,
  "w:artificial": 8654,
  "c:r, s": 8655,
  "c:hemis": 8656,
  "c:o mov": 8657,
  "c:le d": 8658,
  "c: bala": 8659,
  "c:muc": 8660,
  "c: muc": 8661,
  "c:ty an": 8662,
  "c:y wi": 8663,
  "c:ct,": 8664,
  "c:food,": 8665,
  "w:food,": 8666,
  "c:rait": 8667,
  "c:trait": 8668,
  "c:d fi": 8669,
  "c:urre": 8670,
  "c:w s": 8671,
  "c:orme": 8672,
  "c:forme": 8673,
  "c:or se": 8674,
  "c:unlig": 8675,
  "c: poli": 8676,
  "c:ly on": 8677,
  "c:fr ": 8678,
  "c:me u": 8679,
  "c:is un": 8680,
  "c:t le": 8681,
  "c:s ea": 8682,
  "c:rse ": 8683,
  "c:pen ": 8684,
  "c:to ex": 8685,
  "w:movie": 8686,
  "c:ge.": 8687,
  "c:ed th": 8688,
  "c:g. ": 8689,
  "c:ctro": 8690,
  "c:ectro": 8691,
  "w:emotional": 8692,
  "c:tand ": 8693,
  "c:s bi": 8694,
  "c:<a w": 8695,
  "c:ne, ": 8696,
  "c:arnin": 8697,
  "c:y, a ": 8698,
  "c:tche": 8699,
  "c:disc": 8700,
  "c: pai": 8701,
  "c:ay i": 8702,
  "c:recor": 8703,
  "c:ecord": 8704,
  "c:ects.": 8705,
  "c:ly r": 8706,
  "c:r bec": 8707,
  "c:or.>": 8708,
  "c:ne c": 8709,
  "c:de,": 8710,
  "c:ct, ": 8711,
  "c:refl": 8712,
  "c:a car": 8713,
  "c:em.>": 8714,
  "c:d lo": 8715,
  "c:is ma": 8716,
  "c:are m": 8717,
  "c:orn": 8718,
  "c:are e": 8719,
  "c:lain ": 8720,
  "c:h un": 8721,
  "w:name": 8722,
  "c:<a st": 8723,
  "c:mera": 8724,
  "c:vl": 8725,
  "c:a cle": 8726,
  "c:way t": 8727,
  "c:me a": 8728,
  "c: off": 8729,
  "c:sul": 8730,
  "c:eak ": 8731,
  "c:pn": 8732,
  "w:shapes": 8733,
  "c:an ob": 8734,
  "c:wil": 8735,
  "c:el i": 8736,
  "c:hows": 8737,
  "c:shows": 8738,
  "c:cn ": 8739,
  "w:unlim8ted_project_that": 8740,
  "w:project_that_explores": 8741,
  "c:acces": 8742,
  "c:astro": 8743,
  "c:m m": 8744,
  "c:r sh": 8745,
  "c:d a c": 8746,
  "c:r fr": 8747,
  "c:8td": 8748,
  "c:m8td": 8749,
  "c:lm8td": 8750,
  "w:players": 8751,
  "c:ors,": 8752,
  "c:a va": 8753,
  "c:are n": 8754,
  "c:lou": 8755,
  "c:ll t": 8756,
  "c:a na": 8757,
  "c:ssur": 8758,
  "c:e man": 8759,
  "c: came": 8760,
  "c:sed i": 8761,
  "w:shape": 8762,
  "c:m a ": 8763,
  "c:estio": 8764,
  "c:l ex": 8765,
  "c: old": 8766,
  "c:ispl": 8767,
  "c:prin": 8768,
  "c:ispla": 8769,
  "c:consi": 8770,
  "c:, fl": 8771,
  "c:d cr": 8772,
  "c: turn": 8773,
  "c:, sp": 8774,
  "c:ch p": 8775,
  "c:lete": 8776,
  "c:ctl": 8777,
  "c:rs c": 8778,
  "c:niver": 8779,
  "c:a mat": 8780,
  "c:es su": 8781,
  "c:uali": 8782,
  "c:plet": 8783,
  "c: fis": 8784,
  "c: fish": 8785,
  "c:read ": 8786,
  "w:the_process_of": 8787,
  "c:simu": 8788,
  "c:simul": 8789,
  "c:audio": 8790,
  "c:d art": 8791,
  "c:ar i": 8792,
  "c:a per": 8793,
  "c:ng u": 8794,
  "c:ses.>": 8795,
  "c:mig": 8796,
  "c:de, ": 8797,
  "c:opera": 8798,
  "c:nor": 8799,
  "c:am ": 8800,
  "c:desc": 8801,
  "c:ors, ": 8802,
  "c:<unl": 8803,
  "c:dios": 8804,
  "c:in,": 8805,
  "c:es ma": 8806,
  "c: sett": 8807,
  "c:ntry": 8808,
  "c:ssen": 8809,
  "c:ader ": 8810,
  "c:lder ": 8811,
  "w:is_useful_because": 8812,
  "c:veral": 8813,
  "c:mon ": 8814,
  "c:gion ": 8815,
  "c:bcs t": 8816,
  "c:ked ": 8817,
  "c:vie ": 8818,
  "c:ovie ": 8819,
  "c:ed is": 8820,
  "c:es, c": 8821,
  "c:lav": 8822,
  "c:er-": 8823,
  "w:point": 8824,
  "c:s oft": 8825,
  "c:od a": 8826,
  "c:and v": 8827,
  "w:musical": 8828,
  "c:orti": 8829,
  "w:simply,_a": 8830,
  "w:put_simply,_a": 8831,
  "c:memo": 8832,
  "c:oves ": 8833,
  "c:val,": 8834,
  "c:val, ": 8835,
  "c:l, co": 8836,
  "c:nd di": 8837,
  "c:er us": 8838,
  "c:egs": 8839,
  "c:, le": 8840,
  "c:legs": 8841,
  "c: legs": 8842,
  "c:much": 8843,
  "c: much": 8844,
  "c:rh": 8845,
  "c:grat": 8846,
  "c:hared": 8847,
  "c:<ins": 8848,
  "c:wal": 8849,
  "c:lite": 8850,
  "c:ogs ": 8851,
  "c:eser": 8852,
  "c:re ma": 8853,
  "c:nd wh": 8854,
  "w:over_time.": 8855,
  "c:ictio": 8856,
  "c:ater.": 8857,
  "c:ket": 8858,
  "c:in, ": 8859,
  "c:tates": 8860,
  "w:refers_to": 8861,
  "c:land ": 8862,
  "c:frm": 8863,
  "c: sunl": 8864,
  "c:ltern": 8865,
  "c:hat l": 8866,
  "c:nized": 8867,
  "c: dete": 8868,
  "c:<sp": 8869,
  "c:ider": 8870,
  "c: webs": 8871,
  "c:or tr": 8872,
  "c:ed d": 8873,
  "c:easi": 8874,
  "c:univ": 8875,
  "c: univ": 8876,
  "c:unive": 8877,
  "c: a tr": 8878,
  "c:ases ": 8879,
  "c: wil": 8880,
  "w:character": 8881,
  "c:mist": 8882,
  "c:ibi": 8883,
  "w:shows": 8884,
  "c:he h": 8885,
  "c:the h": 8886,
  "c:ed id": 8887,
  "c:llowi": 8888,
  "c:rt t": 8889,
  "c:e ob": 8890,
  "c:one o": 8891,
  "c:root": 8892,
  "c:lity,": 8893,
  "c:t al": 8894,
  "c:a spe": 8895,
  "c:ny s": 8896,
  "w:to_a": 8897,
  "c:or,": 8898,
  "c:or, ": 8899,
  "c:rfu": 8900,
  "c:iter": 8901,
  "c:fe o": 8902,
  "c:rum": 8903,
  "c:<unli": 8904,
  "c:ens ": 8905,
  "c:cip": 8906,
  "c: abso": 8907,
  "c:n an ": 8908,
  "c:e lo": 8909,
  "c: to o": 8910,
  "c:essu": 8911,
  "c:rules": 8912,
  "c:ressu": 8913,
  "c:essur": 8914,
  "c:s acr": 8915,
  "w:on_a": 8916,
  "c:ts h": 8917,
  "w:cn": 8918,
  "c:ce w": 8919,
  "c:os a": 8920,
  "c:es bo": 8921,
  "c:displ": 8922,
  "c:mmon ": 8923,
  "w:common": 8924,
  "c: loo": 8925,
  "c:ny p": 8926,
  "c:rol ": 8927,
  "c:g be": 8928,
  "c:onten": 8929,
  "c:l id": 8930,
  "c:l ide": 8931,
  "c:blo": 8932,
  "c:rage": 8933,
  "c:ed u": 8934,
  "c:visio": 8935,
  "c:s, v": 8936,
  "c:hir": 8937,
  "c:emor": 8938,
  "c:memor": 8939,
  "c:st is": 8940,
  "c:cter ": 8941,
  "c:r lo": 8942,
  "c:engi": 8943,
  "c:engin": 8944,
  "c:ival,": 8945,
  "w:survival,": 8946,
  "c:d sa": 8947,
  "c:much ": 8948,
  "w:much": 8949,
  "c:f pla": 8950,
  "c:prop": 8951,
  "c: eno": 8952,
  "c:ips": 8953,
  "c: nlm": 8954,
  "c: tea": 8955,
  "c:hs ": 8956,
  "c:en u": 8957,
  "c:ium": 8958,
  "c:obs": 8959,
  "c:ay.": 8960,
  "c:e va": 8961,
  "c:comes": 8962,
  "c:omes ": 8963,
  "c:o im": 8964,
  "c: sin": 8965,
  "c:pte": 8966,
  "c:ge a": 8967,
  "c: soi": 8968,
  "c: soil": 8969,
  "c:th u": 8970,
  "c:namin": 8971,
  "c:ets,": 8972,
  "c:ets, ": 8973,
  "c:ng. ": 8974,
  "c:trol ": 8975,
  "w:pt": 8976,
  "c:le in": 8977,
  "c:uel": 8978,
  "c:ppli": 8979,
  "w:earth": 8980,
  "c:repa": 8981,
  "c:ometh": 8982,
  "c:methi": 8983,
  "c:ethin": 8984,
  "c:ve f": 8985,
  "c: simu": 8986,
  "c:hows ": 8987,
  "c:ends ": 8988,
  "c:he pa": 8989,
  "c:und a": 8990,
  "c:ree ": 8991,
  "c:give": 8992,
  "c: vie": 8993,
  "c: view": 8994,
  "c:early": 8995,
  "c:arly ": 8996,
  "c:s me": 8997,
  "c: carb": 8998,
  "c: mood": 8999,
  "c:by p": 9000,
  "c:ss m": 9001,
  "c:ls i": 9002,
  "c:bsor": 9003,
  "c:absor": 9004,
  "c:n im": 9005,
  "w:together": 9006,
  "c:g thi": 9007,
  "c: cm": 9008,
  "c: que": 9009,
  "c:uest": 9010,
  "w:pattern": 9011,
  "c:nt m": 9012,
  "c: arr": 9013,
  "c:ng be": 9014,
  "c:or ca": 9015,
  "c:ocal": 9016,
  "c:<pt": 9017,
  "c:it h": 9018,
  "c:cru": 9019,
  "c:d col": 9020,
  "c:is on": 9021,
  "c:a cr": 9022,
  "c:n obj": 9023,
  "c:l ene": 9024,
  "c:gge": 9025,
  "c:e per": 9026,
  "c:tect ": 9027,
  "c:'s su": 9028,
  "c:righ": 9029,
  "c:right": 9030,
  "c:elf": 9031,
  "c:ve to": 9032,
  "c:lled": 9033,
  "c:ry o": 9034,
  "w:shared": 9035,
  "c:rey": 9036,
  "c:prey": 9037,
  "c:sense": 9038,
  "c:nd to": 9039,
  "c:und i": 9040,
  "c: purp": 9041,
  "c:gui": 9042,
  "c:bse": 9043,
  "c:erva": 9044,
  "c:ths": 9045,
  "c:ate i": 9046,
  "c:estin": 9047,
  "c:quest": 9048,
  "w:naming": 9049,
  "c:quic": 9050,
  "c:uick": 9051,
  "c: a lo": 9052,
  "c:quick": 9053,
  "c: draw": 9054,
  "w:a_studio": 9055,
  "c:n s t": 9056,
  "c:<a re": 9057,
  "c:hey c": 9058,
  "c:r cl": 9059,
  "c: put": 9060,
  "c:cta": 9061,
  "c:iel": 9062,
  "c:ield": 9063,
  "c:n pl": 9064,
  "c:l of": 9065,
  "c:ce in": 9066,
  "c:ne p": 9067,
  "c:arth ": 9068,
  "c:inem": 9069,
  "c:. i ": 9070,
  "c: mix": 9071,
  "c:ney": 9072,
  "c:othi": 9073,
  "c:othin": 9074,
  "c:ding,": 9075,
  "c:ing u": 9076,
  "w:all": 9077,
  "c:ic m": 9078,
  "c:scie": 9079,
  "c:scien": 9080,
  "c:rful": 9081,
  "c:nd po": 9082,
  "c:m to ": 9083,
  "c:e bi": 9084,
  "c:f n": 9085,
  "c:ctor": 9086,
  "w:to_create": 9087,
  "c:ssure": 9088,
  "c:-o": 9089,
  "c: nes": 9090,
  "c: nest": 9091,
  "w:with_the": 9092,
  "c:te n": 9093,
  "c: nami": 9094,
  "c:des b": 9095,
  "c: quic": 9096,
  "c:king,": 9097,
  "c:ties ": 9098,
  "c:an r": 9099,
  "c: meth": 9100,
  "c:al id": 9101,
  "c:aker": 9102,
  "c:moon": 9103,
  "c:ile s": 9104,
  "c:rci": 9105,
  "c:gh s": 9106,
  "c:rt.": 9107,
  "c:rui": 9108,
  "c: a to": 9109,
  "c:<a g": 9110,
  "c:w a": 9111,
  "c:oks": 9112,
  "c:ooks": 9113,
  "c:ct is": 9114,
  "c:a th": 9115,
  "w:to_move": 9116,
  "c:ut a ": 9117,
  "c:to u": 9118,
  "c:ning.": 9119,
  "c:s, n": 9120,
  "c:k m": 9121,
  "c:my ": 9122,
  "c: ast": 9123,
  "c:yes,": 9124,
  "c:yes, ": 9125,
  "c:nce a": 9126,
  "c:t thr": 9127,
  "w:like": 9128,
  "c: nlm8": 9129,
  "c:opi": 9130,
  "c: by p": 9131,
  "c: ic": 9132,
  "c:hw": 9133,
  "c:gh th": 9134,
  "c:ant i": 9135,
  "c:epea": 9136,
  "c:peat": 9137,
  "c:repea": 9138,
  "c:epeat": 9139,
  "c:'s na": 9140,
  "c: as p": 9141,
  "c:<com": 9142,
  "c:t sup": 9143,
  "c:inp": 9144,
  "c:npu": 9145,
  "c:inpu": 9146,
  "c:nput": 9147,
  "c:input": 9148,
  "c:a wi": 9149,
  "c: wav": 9150,
  "c: wave": 9151,
  "w:understand": 9152,
  "c:ecome": 9153,
  "w:region": 9154,
  "c:s te": 9155,
  "c:tandi": 9156,
  "c: sid": 9157,
  "c: side": 9158,
  "c:t it": 9159,
  "c:ne s": 9160,
  "c:tren": 9161,
  "c:ale ": 9162,
  "c:im i": 9163,
  "w:made_from": 9164,
  "c:a dis": 9165,
  "c:ngle": 9166,
  "c:dwa": 9167,
  "c:<an o": 9168,
  "c:inta": 9169,
  "c:ivo": 9170,
  "c:efle": 9171,
  "c:shr": 9172,
  "c:rld ": 9173,
  "c:w th": 9174,
  "c:of an": 9175,
  "c:cate ": 9176,
  "w:found": 9177,
  "w:the_body": 9178,
  "c:ife o": 9179,
  "c:cert": 9180,
  "c:r sys": 9181,
  "c:ance.": 9182,
  "c:ivid": 9183,
  "c:om is": 9184,
  "c:e. a": 9185,
  "c:irc": 9186,
  "c:d fe": 9187,
  "c:en m": 9188,
  "c:iall": 9189,
  "c:ially": 9190,
  "c:man ": 9191,
  "c:find": 9192,
  "c: a cl": 9193,
  "c:tay": 9194,
  "c:stay": 9195,
  "c: stay": 9196,
  "c:ncy i": 9197,
  "c:sity": 9198,
  "c:d ac": 9199,
  "w:writing": 9200,
  "w:something": 9201,
  "c: a wa": 9202,
  "c:sim i": 9203,
  "c:anic ": 9204,
  "c:l lif": 9205,
  "c:, vi": 9206,
  "c:rono": 9207,
  "c:n he": 9208,
  "c:ht.": 9209,
  "c:hre": 9210,
  "w:training": 9211,
  "c:in is": 9212,
  "c:ace t": 9213,
  "c: prey": 9214,
  "c:escr": 9215,
  "c:rs, a": 9216,
  "c:certa": 9217,
  "c:t cr": 9218,
  "c: s m": 9219,
  "c:zi": 9220,
  "c:nd me": 9221,
  "c:tate ": 9222,
  "c:mac": 9223,
  "c:t, s": 9224,
  "c: inp": 9225,
  "c: inpu": 9226,
  "c: a ne": 9227,
  "c:ss th": 9228,
  "c:ral p": 9229,
  "c:let ": 9230,
  "c: prog": 9231,
  "c:hat d": 9232,
  "c:ract ": 9233,
  "c:olut": 9234,
  "c:wind": 9235,
  "c:ts, o": 9236,
  "c: memo": 9237,
  "c:e sy": 9238,
  "c:ve o": 9239,
  "w:and_often": 9240,
  "c: ben": 9241,
  "c: nec": 9242,
  "c:aws": 9243,
  "c:ings,": 9244,
  "c:gory ": 9245,
  "c:lled ": 9246,
  "c:refle": 9247,
  "c:omen": 9248,
  "c: fol": 9249,
  "c:escri": 9250,
  "c:slee": 9251,
  "c:denc": 9252,
  "c:f in": 9253,
  "c:cal r": 9254,
  "c: sd": 9255,
  "c:io p": 9256,
  "c:road ": 9257,
  "c:e par": 9258,
  "c:amera": 9259,
  "c:rran": 9260,
  "w:control": 9261,
  "c:lnt": 9262,
  "c:bed": 9263,
  "c:ial i": 9264,
  "c:roll": 9265,
  "c:rabl": 9266,
  "c:rable": 9267,
  "c:ttle": 9268,
  "c:hod": 9269,
  "c:thod": 9270,
  "c:ean ": 9271,
  "c:me c": 9272,
  "c:lothi": 9273,
  "c:ll s": 9274,
  "c:ght.": 9275,
  "c:hers ": 9276,
  "c:, gr": 9277,
  "c: give": 9278,
  "c:at w": 9279,
  "c:recti": 9280,
  "c:iven": 9281,
  "c: all ": 9282,
  "c:d how": 9283,
  "c:art i": 9284,
  "c:gal": 9285,
  "c:full": 9286,
  "c:d la": 9287,
  "c:boat": 9288,
  "c:e wat": 9289,
  "c: lit": 9290,
  "c:ll is": 9291,
  "c:d cl": 9292,
  "c:in an": 9293,
  "c:, ha": 9294,
  "c:d as ": 9295,
  "c:enou": 9296,
  "w:connected": 9297,
  "c:ame u": 9298,
  "c:kl": 9299,
  "c:camer": 9300,
  "c:hr ": 9301,
  "c:y fr": 9302,
  "c:gem": 9303,
  "c:geme": 9304,
  "c:gemen": 9305,
  "c:riod": 9306,
  "c:perio": 9307,
  "c:eriod": 9308,
  "c:d pu": 9309,
  "w:things": 9310,
  "c:luc": 9311,
  "c:ices ": 9312,
  "c:cal s": 9313,
  "c: moon": 9314,
  "c:<pt ": 9315,
  "c:<pt s": 9316,
  "c:pt sm": 9317,
  "c:t smp": 9318,
  "c:smply": 9319,
  "w:smply,": 9320,
  "w:pt_smply,": 9321,
  "c:cinem": 9322,
  "c: atte": 9323,
  "c:gent": 9324,
  "c:im is": 9325,
  "w:sim_is": 9326,
  "w:organisms_sim_is": 9327,
  "c:in wh": 9328,
  "c:ensio": 9329,
  "c:g, c": 9330,
  "c:es a ": 9331,
  "c:lth ": 9332,
  "c:thre": 9333,
  "c:aller": 9334,
  "c:dul": 9335,
  "c:hark": 9336,
  "c:shark": 9337,
  "c:rwa": 9338,
  "c:rativ": 9339,
  "c:all i": 9340,
  "c:h n": 9341,
  "c:at ma": 9342,
  "c:come ": 9343,
  "c: a pa": 9344,
  "c:cal p": 9345,
  "c:ocati": 9346,
  "c:s wor": 9347,
  "c:s, re": 9348,
  "c:oods ": 9349,
  "c:in ma": 9350,
  "c:puz": 9351,
  "c:puzz": 9352,
  "c:puzzl": 9353,
  "c:h unl": 9354,
  "c:<pe": 9355,
  "c:t wo": 9356,
  "c: phon": 9357,
  "c:fact": 9358,
  "c:inal ": 9359,
  "c: peri": 9360,
  "c:rain ": 9361,
  "c: ds": 9362,
  "c:sis i": 9363,
  "c: find": 9364,
  "w:is_the_study": 9365,
  "c:stab": 9366,
  "c:cular": 9367,
  "c:t en": 9368,
  "c:users": 9369,
  "c:r on": 9370,
  "c: fas": 9371,
  "c:aut": 9372,
  "c:earni": 9373,
  "c:d sup": 9374,
  "c:a mod": 9375,
  "c:as.": 9376,
  "c:etho": 9377,
  "c:metho": 9378,
  "c:ethod": 9379,
  "c:adu": 9380,
  "c:ild ": 9381,
  "c:t pl": 9382,
  "c:e ph": 9383,
  "c:echni": 9384,
  "c:ainta": 9385,
  "c:intai": 9386,
  "c:de a": 9387,
  "c:of b": 9388,
  "c:an t": 9389,
  "c: of b": 9390,
  "c:l de": 9391,
  "c:ates.": 9392,
  "c:are,": 9393,
  "c:sal": 9394,
  "c:s s ": 9395,
  "c:esou": 9396,
  "c:resou": 9397,
  "c:esour": 9398,
  "c: mol": 9399,
  "c:d hel": 9400,
  "c:ppi": 9401,
  "c:e nam": 9402,
  "c:dio p": 9403,
  "c:aring": 9404,
  "c:same": 9405,
  "c:a bi": 9406,
  "c:tor i": 9407,
  "c:arran": 9408,
  "c:rrang": 9409,
  "c:as i": 9410,
  "c:is ho": 9411,
  "c:rbon": 9412,
  "c:arbon": 9413,
  "c:wers ": 9414,
  "c:ter c": 9415,
  "c:ndar": 9416,
  "c:an f": 9417,
  "c:aces ": 9418,
  "c:d sys": 9419,
  "c:onic": 9420,
  "c:lty": 9421,
  "c:acin": 9422,
  "c:acing": 9423,
  "c: disc": 9424,
  "c:al, c": 9425,
  "c:ance,": 9426,
  "c:self": 9427,
  "c:slo": 9428,
  "c:hunt": 9429,
  "c: hunt": 9430,
  "w:category": 9431,
  "c:n, c": 9432,
  "c:n en": 9433,
  "c:rip": 9434,
  "c:e sm": 9435,
  "c:surr": 9436,
  "c:ccur": 9437,
  "c:ios ": 9438,
  "c:udios": 9439,
  "c:ce or": 9440,
  "c:st s": 9441,
  "c:yle ": 9442,
  "c:tyle ": 9443,
  "c:bees": 9444,
  "c:o con": 9445,
  "c:es on": 9446,
  "c:ppin": 9447,
  "c:g his": 9448,
  "w:real": 9449,
  "c:squ": 9450,
  "c:same ": 9451,
  "c:tual": 9452,
  "c:ve e": 9453,
  "c:orld ": 9454,
  "c:e mu": 9455,
  "c:ing. ": 9456,
  "c:ctly": 9457,
  "c:for e": 9458,
  "c:or di": 9459,
  "c: put ": 9460,
  "c:heat ": 9461,
  "c:ly an": 9462,
  "c: son": 9463,
  "c:l v": 9464,
  "c:ed r": 9465,
  "c:pired": 9466,
  "c:y he": 9467,
  "c:ial l": 9468,
  "c:op ": 9469,
  "c:-ba": 9470,
  "c:e. t": 9471,
  "c:feath": 9472,
  "c:ts or": 9473,
  "c: thre": 9474,
  "c:, bi": 9475,
  "c:ly u": 9476,
  "c:or vi": 9477,
  "c:or pa": 9478,
  "c:core": 9479,
  "c:lock": 9480,
  "c:rout": 9481,
  "w:forms": 9482,
  "c:hen t": 9483,
  "c:ve th": 9484,
  "c:e as": 9485,
  "c: desc": 9486,
  "c:are o": 9487,
  "c:are, ": 9488,
  "c:sorb": 9489,
  "c:lows ": 9490,
  "c:<a ca": 9491,
  "c:e are": 9492,
  "c:noug": 9493,
  "c:enoug": 9494,
  "c:nough": 9495,
  "c:ds th": 9496,
  "c:oles": 9497,
  "c:ologi": 9498,
  "c:th un": 9499,
  "w:items": 9500,
  "c:rove ": 9501,
  "c:ne.": 9502,
  "w:being": 9503,
  "c:ond ": 9504,
  "c:mbr": 9505,
  "c:ciall": 9506,
  "c:fer ": 9507,
  "c:featu": 9508,
  "c:lf ": 9509,
  "c:d vi": 9510,
  "c:uces": 9511,
  "c:stag": 9512,
  "c: cru": 9513,
  "c:nism ": 9514,
  "c:flec": 9515,
  "c:eflec": 9516,
  "c:flect": 9517,
  "c:he de": 9518,
  "c:ect d": 9519,
  "c:onst": 9520,
  "c:ms, p": 9521,
  "c: mas": 9522,
  "c:i ca": 9523,
  "c: driv": 9524,
  "w:sim_is_a": 9525,
  "c:arit": 9526,
  "c:ink ": 9527,
  "c:m in": 9528,
  "c:a us": 9529,
  "c:nomy": 9530,
  "c:onomy": 9531,
  "c:t cl": 9532,
  "c: th s": 9533,
  "c:te th": 9534,
  "c:e, t": 9535,
  "c:rful ": 9536,
  "w:matters_because_it": 9537,
  "c: cer": 9538,
  "c:serva": 9539,
  "c: ns": 9540,
  "c:g g": 9541,
  "c:e, r": 9542,
  "c:te m": 9543,
  "c: ord": 9544,
  "c:rnate": 9545,
  "c:ate n": 9546,
  "c:splay": 9547,
  "c:rfl": 9548,
  "c:, br": 9549,
  "w:improve": 9550,
  "c:te.": 9551,
  "c:e rea": 9552,
  "c:e sam": 9553,
  "c: same": 9554,
  "c:nd sp": 9555,
  "c: bei": 9556,
  "c: bein": 9557,
  "c:y can": 9558,
  "c:can c": 9559,
  "c:sic c": 9560,
  "w:the_central": 9561,
  "c:it o": 9562,
  "c:ratin": 9563,
  "c:ood i": 9564,
  "c:orks": 9565,
  "c:fast": 9566,
  "c:o be": 9567,
  "c:nd se": 9568,
  "c:ood a": 9569,
  "c: mon": 9570,
  "c:rt s": 9571,
  "c:g re": 9572,
  "c:gh i": 9573,
  "c:ct wi": 9574,
  "c:lari": 9575,
  "w:wth": 9576,
  "w:competition,": 9577,
  "c:urni": 9578,
  "c:rope": 9579,
  "c:ng, c": 9580,
  "c:trono": 9581,
  "c:ronom": 9582,
  "c:icy": 9583,
  "c:eels ": 9584,
  "c:etal": 9585,
  "c: weat": 9586,
  "c:r po": 9587,
  "c:ent f": 9588,
  "c:eat,": 9589,
  "c:bsorb": 9590,
  "c: a pi": 9591,
  "c:n int": 9592,
  "c:at us": 9593,
  "c:nd li": 9594,
  "c:t po": 9595,
  "c: enou": 9596,
  "c:pping": 9597,
  "c:y on ": 9598,
  "c:r cr": 9599,
  "c:itte": 9600,
  "w:explain": 9601,
  "c:s nam": 9602,
  "c:tead": 9603,
  "c:stead": 9604,
  "c:leani": 9605,
  "w:same": 9606,
  "w:the_same": 9607,
  "c:<br": 9608,
  "c:in h": 9609,
  "c:its a": 9610,
  "c:bine": 9611,
  "c: ten": 9612,
  "c:seaso": 9613,
  "c:, car": 9614,
  "c:y con": 9615,
  "c:<inse": 9616,
  "c:ts e": 9617,
  "c:ore i": 9618,
  "c:<an i": 9619,
  "c:e fl": 9620,
  "c: in f": 9621,
  "c:readi": 9622,
  "c: bri": 9623,
  "c:hp": 9624,
  "c: refl": 9625,
  "c:etti": 9626,
  "c:g li": 9627,
  "c:ng li": 9628,
  "c:d sto": 9629,
  "c:orbi": 9630,
  "c:ed v": 9631,
  "c:rs w": 9632,
  "c:trs": 9633,
  "c:r, o": 9634,
  "c:then": 9635,
  "c:descr": 9636,
  "c:arie": 9637,
  "c:ted f": 9638,
  "c:eat, ": 9639,
  "c: come": 9640,
  "c:ches ": 9641,
  "c:hine": 9642,
  "w:includes_both": 9643,
  "c: or h": 9644,
  "c:nt l": 9645,
  "c:ly d": 9646,
  "c:.c": 9647,
  "c:d.c": 9648,
  "c:ch t": 9649,
  "c:test": 9650,
  "c:r a s": 9651,
  "c:dogs": 9652,
  "c:le us": 9653,
  "c:by w": 9654,
  "c:lized": 9655,
  "c:o n": 9656,
  "c:stage": 9657,
  "c:fue": 9658,
  "c:fuel": 9659,
  "c:l, o": 9660,
  "c: seq": 9661,
  "c: sequ": 9662,
  "c:o he": 9663,
  "c:n tr": 9664,
  "c:ng-": 9665,
  "c:how t": 9666,
  "c:ient ": 9667,
  "c:gine": 9668,
  "c:ettin": 9669,
  "c:n, su": 9670,
  "c:t cha": 9671,
  "c:y, m": 9672,
  "c:e ai": 9673,
  "c:re r": 9674,
  "c:ain f": 9675,
  "c:t, c": 9676,
  "c:f g": 9677,
  "c: surr": 9678,
  "c: lis": 9679,
  "c: list": 9680,
  "c:us,": 9681,
  "c: obs": 9682,
  "c:ames,": 9683,
  "w:studios": 9684,
  "w:technology": 9685,
  "c:ier ": 9686,
  "c:ect a": 9687,
  "c:uir": 9688,
  "c:quir": 9689,
  "w:sd": 9690,
  "w:alternate": 9691,
  "w:unlim8ted's_naming": 9692,
  "c:ad o": 9693,
  "c:k b": 9694,
  "c:erse ": 9695,
  "c: arra": 9696,
  "c:e can": 9697,
  "c:uman ": 9698,
  "w:human": 9699,
  "w:motion": 9700,
  "c:elt": 9701,
  "c:ap ": 9702,
  "c: net": 9703,
  "c:ues ": 9704,
  "c: stag": 9705,
  "c:song": 9706,
  "c:past": 9707,
  "c:ng re": 9708,
  "c:ugh i": 9709,
  "c:ct o": 9710,
  "c: to u": 9711,
  "c:r wi": 9712,
  "c:scal": 9713,
  "c:beak": 9714,
  "c:bits": 9715,
  "w:parts_of": 9716,
  "w:vehicles": 9717,
  "c:erti": 9718,
  "c:e bec": 9719,
  "c:orce ": 9720,
  "c:trad": 9721,
  "c:rk.": 9722,
  "c:tes,": 9723,
  "c:d tra": 9724,
  "c:tes, ": 9725,
  "c:urro": 9726,
  "c:ently": 9727,
  "c:miner": 9728,
  "c:inera": 9729,
  "c:ted.>": 9730,
  "c: clos": 9731,
  "c:s foo": 9732,
  "c:ece ": 9733,
  "c:xam": 9734,
  "c:exam": 9735,
  "c:rees ": 9736,
  "c: puz": 9737,
  "c: puzz": 9738,
  "w:naming_history": 9739,
  "c:utte": 9740,
  "c:p of": 9741,
  "c:ic f": 9742,
  "c:dan": 9743,
  "c:ge.>": 9744,
  "c: sco": 9745,
  "c: by w": 9746,
  "c:t pa": 9747,
  "c:cker": 9748,
  "c:ola": 9749,
  "c:w o": 9750,
  "c:quali": 9751,
  "c:ette": 9752,
  "c:g foo": 9753,
  "c: wind": 9754,
  "c:fru": 9755,
  "c:key ": 9756,
  "c:a vi": 9757,
  "c:k s": 9758,
  "c:c is": 9759,
  "c:emist": 9760,
  "c: a br": 9761,
  "c:ic t": 9762,
  "c:ight.": 9763,
  "c:e act": 9764,
  "c:rsona": 9765,
  "c:t me": 9766,
  "c:lly m": 9767,
  "c:ow th": 9768,
  "c:ce c": 9769,
  "c:dios ": 9770,
  "w:unlim8ted_studios": 9771,
  "c:ade o": 9772,
  "c:ts. ": 9773,
  "c:iece ": 9774,
  "c:e mat": 9775,
  "w:piece": 9776,
  "c:ht a": 9777,
  "c:ght a": 9778,
  "c:taine": 9779,
  "c:sed b": 9780,
  "c:n it ": 9781,
  "c:n id": 9782,
  "c:io pr": 9783,
  "w:history_includes": 9784,
  "w:unlim8ted's_naming_history": 9785,
  "w:naming_history_includes": 9786,
  "c:ead o": 9787,
  "c:ryd": 9788,
  "c:utter": 9789,
  "c:rrow": 9790,
  "c:ged ": 9791,
  "c:on be": 9792,
  "w:good": 9793,
  "c:it.>": 9794,
  "c:se an": 9795,
  "c:ivor": 9796,
  "c:tains": 9797,
  "c:n pla": 9798,
  "c:p p": 9799,
  "c:cise": 9800,
  "c:l mo": 9801,
  "c:i can": 9802,
  "c:e. th": 9803,
  "c:lass": 9804,
  "c:tinc": 9805,
  "c:inct": 9806,
  "c:tinct": 9807,
  "c:e, m": 9808,
  "c:he v": 9809,
  "c:the v": 9810,
  "c:n se": 9811,
  "c:oid": 9812,
  "c:trate": 9813,
  "c:us, ": 9814,
  "c:mpt": 9815,
  "c:zin": 9816,
  "c:laces": 9817,
  "w:enough": 9818,
  "c:mach": 9819,
  "c:ct p": 9820,
  "c:ut th": 9821,
  "c:n ide": 9822,
  "c:r alt": 9823,
  "c: in e": 9824,
  "c:rink": 9825,
  "c: hl": 9826,
  "c:enge": 9827,
  "c:or un": 9828,
  "c:rgy,": 9829,
  "c:good ": 9830,
  "c:n exp": 9831,
  "c: hy": 9832,
  "c:cal c": 9833,
  "c:e sha": 9834,
  "c:or ch": 9835,
  "c:es wi": 9836,
  "c: fue": 9837,
  "c: fuel": 9838,
  "c:decis": 9839,
  "c:ly, s": 9840,
  "c:mplet": 9841,
  "c:try i": 9842,
  "c:m d": 9843,
  "c:l us": 9844,
  "c:ow a": 9845,
  "c:tende": 9846,
  "c:for l": 9847,
  "c:nto a": 9848,
  "c:mistr": 9849,
  "c:istry": 9850,
  "c:ads": 9851,
  "c:fir": 9852,
  "c: fie": 9853,
  "c:wei": 9854,
  "c:fal": 9855,
  "c:dwar": 9856,
  "c:unti": 9857,
  "c:omf": 9858,
  "c:mfo": 9859,
  "c:comf": 9860,
  "c:omfo": 9861,
  "c:mfor": 9862,
  "c:comfo": 9863,
  "c:omfor": 9864,
  "c:mfort": 9865,
  "c:igr": 9866,
  "c:igra": 9867,
  "c:ork,": 9868,
  "c:th st": 9869,
  "c:as m": 9870,
  "c:leep": 9871,
  "c:sleep": 9872,
  "c:ene ": 9873,
  "c:ent w": 9874,
  "c:med ": 9875,
  "c:ng g": 9876,
  "c:cid": 9877,
  "w:trees": 9878,
  "c:uid ": 9879,
  "c:mposi": 9880,
  "c:of in": 9881,
  "c:ames ": 9882,
  "c:os an": 9883,
  "c: low": 9884,
  "c:er r": 9885,
  "c:ess.>": 9886,
  "c:flie": 9887,
  "c:flies": 9888,
  "c:reve": 9889,
  "c: run": 9890,
  "c:ay to": 9891,
  "c:mbine": 9892,
  "c: hold": 9893,
  "c:ly th": 9894,
  "w:is_how": 9895,
  "c:orati": 9896,
  "c:rgy, ": 9897,
  "c:t tra": 9898,
  "c:use s": 9899,
  "c:remo": 9900,
  "c:d a s": 9901,
  "w:yes,": 9902,
  "c:odies": 9903,
  "c:m and": 9904,
  "c:g it ": 9905,
  "c:rgn": 9906,
  "w:heat": 9907,
  "c:essa": 9908,
  "c:appli": 9909,
  "c:g v": 9910,
  "c:l pa": 9911,
  "c:th is": 9912,
  "c:atten": 9913,
  "c:rtin": 9914,
  "c:rting": 9915,
  "c:e sys": 9916,
  "c:he en": 9917,
  "c: a si": 9918,
  "c:fiel": 9919,
  "c:field": 9920,
  "c:fica": 9921,
  "c:ifica": 9922,
  "c:ols,": 9923,
  "c:ols, ": 9924,
  "c:<se": 9925,
  "c:ems,": 9926,
  "c:ems, ": 9927,
  "c:e kn": 9928,
  "c:gres": 9929,
  "c:y wit": 9930,
  "c:gress": 9931,
  "c:work,": 9932,
  "c:ork, ": 9933,
  "c:a te": 9934,
  "c:h co": 9935,
  "c:g for": 9936,
  "c:obse": 9937,
  "c:bser": 9938,
  "c:rvat": 9939,
  "c:obser": 9940,
  "c:bserv": 9941,
  "c:ervat": 9942,
  "c:red o": 9943,
  "c:phy ": 9944,
  "c:lum": 9945,
  "c:<de": 9946,
  "c:ulate": 9947,
  "c:lies ": 9948,
  "c:hole": 9949,
  "c:e hea": 9950,
  "c:ce b": 9951,
  "c: esp": 9952,
  "c:iati": 9953,
  "c:dina": 9954,
  "c:xid": 9955,
  "c:oxid": 9956,
  "c:rces ": 9957,
  "c:cells": 9958,
  "c:ls w": 9959,
  "w:animal": 9960,
  "c:a ve": 9961,
  "w:are_important_because": 9962,
  "c:works": 9963,
  "w:use_of": 9964,
  "c:it sh": 9965,
  "c:, fr": 9966,
  "c:em is": 9967,
  "c:ant t": 9968,
  "w:the_way": 9969,
  "c:k f": 9970,
  "c:, an ": 9971,
  "c:echa": 9972,
  "c:-ins": 9973,
  "c:-insp": 9974,
  "c:boun": 9975,
  "c: cn ": 9976,
  "c:res b": 9977,
  "c:as su": 9978,
  "c:uced": 9979,
  "c:t str": 9980,
  "c: beak": 9981,
  "c:its o": 9982,
  "c:e kno": 9983,
  "w:under": 9984,
  "c:nical": 9985,
  "c:migr": 9986,
  "c:migra": 9987,
  "c:igrat": 9988,
  "c:r gr": 9989,
  "c: rout": 9990,
  "w:projects": 9991,
  "c: wal": 9992,
  "c:arch": 9993,
  "c:are f": 9994,
  "c:ts su": 9995,
  "c:ts us": 9996,
  "c:md": 9997,
  "c:e on ": 9998,
  "c:fc": 9999,
  "c:itic": 10000,
  "c:en,": 10001,
  "c:ts ca": 10002,
  "c:g s ": 10003,
  "c:ntex": 10004,
  "c:ontex": 10005,
  "c:ntext": 10006,
  "c:ios a": 10007,
  "w:unlim8ted_studio": 10008,
  "c:icie": 10009,
  "c:s rea": 10010,
  "c:up o": 10011,
  "c:swi": 10012,
  "c:ns in": 10013,
  "c:<ba": 10014,
  "c:hom": 10015,
  "c:, us": 10016,
  "c:ail ": 10017,
  "c: los": 10018,
  "c:erci": 10019,
  "c:if ": 10020,
  "c:ort,": 10021,
  "c:s mus": 10022,
  "c:s man": 10023,
  "c:. m": 10024,
  "c:he us": 10025,
  "c:prep": 10026,
  "c:spre": 10027,
  "c:prea": 10028,
  "c:sprea": 10029,
  "c:pread": 10030,
  "c:arp": 10031,
  "c: mine": 10032,
  "c:nt fo": 10033,
  "c:uf": 10034,
  "c:ly in": 10035,
  "c:acke": 10036,
  "w:is_used": 10037,
  "c:as ad": 10038,
  "c:tow": 10039,
  "c: fiel": 10040,
  "c:shed": 10041,
  "c:ure a": 10042,
  "c:nd be": 10043,
  "c: root": 10044,
  "c:as c": 10045,
  "c:les t": 10046,
  "c:orr": 10047,
  "c:s exp": 10048,
  "c:needs": 10049,
  "c:meal": 10050,
  "c: mig": 10051,
  "c:ers o": 10052,
  "c: ent": 10053,
  "c:s unl": 10054,
  "c:y, t": 10055,
  "c:hasi": 10056,
  "c:<fr": 10057,
  "c:l su": 10058,
  "c:rvati": 10059,
  "c:n whi": 10060,
  "c:und.": 10061,
  "c:ound.": 10062,
  "c:gy.": 10063,
  "c:prob": 10064,
  "c:d wo": 10065,
  "c:s rep": 10066,
  "c:nki": 10067,
  "c:nkin": 10068,
  "c:nking": 10069,
  "c:a o": 10070,
  "c:c r": 10071,
  "c:en, ": 10072,
  "c:n as": 10073,
  "c:e ol": 10074,
  "c:al ex": 10075,
  "c:e old": 10076,
  "c: olde": 10077,
  "w:history_includes_both": 10078,
  "c:lets": 10079,
  "c:cars": 10080,
  "c:ficie": 10081,
  "c:icien": 10082,
  "c:ate,": 10083,
  "c:e ra": 10084,
  "c:th e": 10085,
  "c:s nee": 10086,
  "c:t unl": 10087,
  "c:duces": 10088,
  "c:soli": 10089,
  "c:ort, ": 10090,
  "c:lso": 10091,
  "c:brow": 10092,
  "c: als": 10093,
  "c:also": 10094,
  "c:lso ": 10095,
  "c: also": 10096,
  "c:also ": 10097,
  "w:also": 10098,
  "c:ck is": 10099,
  "c:reen ": 10100,
  "c:ored": 10101,
  "c:st.>": 10102,
  "c:ng v": 10103,
  "c:c is ": 10104,
  "c:rren": 10105,
  "c:te o": 10106,
  "c:se e": 10107,
  "c:d a b": 10108,
  "c:og ": 10109,
  "c:s bio": 10110,
  "c:te c": 10111,
  "c:ars t": 10112,
  "c: astr": 10113,
  "c:alth ": 10114,
  "c:kel": 10115,
  "c: slo": 10116,
  "c:slow": 10117,
  "c:ue t": 10118,
  "c:ming,": 10119,
  "c:ms, b": 10120,
  "c:g wi": 10121,
  "c:san": 10122,
  "c:w r": 10123,
  "c:pendi": 10124,
  "c:ect s": 10125,
  "c:r for": 10126,
  "c:in co": 10127,
  "w:games,": 10128,
  "c:ky ": 10129,
  "c:ect.": 10130,
  "c:n ai ": 10131,
  "c:geo": 10132,
  "c:aphy": 10133,
  "c:raphy": 10134,
  "c: req": 10135,
  "c:r dr": 10136,
  "c: requ": 10137,
  "c:chine": 10138,
  "c:r si": 10139,
  "w:older": 10140,
  "c:ate, ": 10141,
  "c:butt": 10142,
  "c:drin": 10143,
  "c: drin": 10144,
  "c:drink": 10145,
  "c:o.>": 10146,
  "w:world": 10147,
  "c:e ov": 10148,
  "c:ermi": 10149,
  "c:any p": 10150,
  "c: espe": 10151,
  "w:especially": 10152,
  "c:r can": 10153,
  "c:edit": 10154,
  "c:ols.": 10155,
  "c:epi": 10156,
  "c:trea": 10157,
  "c:plnt": 10158,
  "c:ted o": 10159,
  "c:tee": 10160,
  "c:f ho": 10161,
  "c:of ho": 10162,
  "c:ts n": 10163,
  "w:leaves": 10164,
  "c:s, ca": 10165,
  "c:ere i": 10166,
  "c:sted": 10167,
  "c:d pe": 10168,
  "c:faces": 10169,
  "c:shin": 10170,
  "c: past": 10171,
  "c:ttent": 10172,
  "c:d are": 10173,
  "c:olves": 10174,
  "c:d ap": 10175,
  "c:dish": 10176,
  "c:but a": 10177,
  "c: boa": 10178,
  "c:duced": 10179,
  "c: riv": 10180,
  "c:, pe": 10181,
  "c:ser ": 10182,
  "c:a use": 10183,
  "c: to g": 10184,
  "c:tems,": 10185,
  "c:ng wi": 10186,
  "c:al is": 10187,
  "c:edg": 10188,
  "c: trad": 10189,
  "c:e sma": 10190,
  "c:at an": 10191,
  "c:boli": 10192,
  "c:nt, a": 10193,
  "c:food.": 10194,
  "w:food.": 10195,
  "c:eali": 10196,
  "c: sle": 10197,
  "c:n wat": 10198,
  "c: aw": 10199,
  "c:rk i": 10200,
  "c:er. ": 10201,
  "c:gs t": 10202,
  "c:ve.": 10203,
  "c:. b": 10204,
  "c:any s": 10205,
  "c:or fo": 10206,
  "c:th r": 10207,
  "c:he ol": 10208,
  "c:fecti": 10209,
  "c:me,": 10210,
  "c:o de": 10211,
  "c:a for": 10212,
  "c:rest ": 10213,
  "c:cki": 10214,
  "c:ckin": 10215,
  "c:cking": 10216,
  "c:lue ": 10217,
  "c:n cr": 10218,
  "c:n's": 10219,
  "c:ine i": 10220,
  "c:ualit": 10221,
  "c:he fi": 10222,
  "c: it h": 10223,
  "c:mpar": 10224,
  "c:ompar": 10225,
  "c:oluti": 10226,
  "c:ns f": 10227,
  "c:may ": 10228,
  "c: may ": 10229,
  "w:may": 10230,
  "c:frui": 10231,
  "c:ruit": 10232,
  "c:fruit": 10233,
  "c: song": 10234,
  "c:const": 10235,
  "c:d app": 10236,
  "c:mer ": 10237,
  "c:moves": 10238,
  "c:ishe": 10239,
  "c:er ca": 10240,
  "c:torie": 10241,
  "w:adaptation,": 10242,
  "c:oas": 10243,
  "c:care": 10244,
  "c:law": 10245,
  "c:n fl": 10246,
  "c:tist": 10247,
  "c:ex ": 10248,
  "c:metal": 10249,
  "c:ules ": 10250,
  "c:of pl": 10251,
  "c:mbers": 10252,
  "c:rs i": 10253,
  "c:emph": 10254,
  "c:mpha": 10255,
  "c:empha": 10256,
  "c:mphas": 10257,
  "c:phasi": 10258,
  "c:lt a": 10259,
  "c:g wh": 10260,
  "c:en w": 10261,
  "w:image": 10262,
  "c:outh": 10263,
  "c:unds": 10264,
  "c:ot a": 10265,
  "c:ounds": 10266,
  "c:ve,": 10267,
  "c:dence": 10268,
  "c:cog": 10269,
  "c:tered": 10270,
  "c: fr ": 10271,
  "c:l pu": 10272,
  "c:ms, t": 10273,
  "c: ques": 10274,
  "c:oth u": 10275,
  "c:te na": 10276,
  "w:both_unlim8ted": 10277,
  "w:both_unlim8ted_studios": 10278,
  "c:yda": 10279,
  "c:eryd": 10280,
  "c:ryda": 10281,
  "c:yday": 10282,
  "c:veryd": 10283,
  "c:eryda": 10284,
  "c:ryday": 10285,
  "w:everyday": 10286,
  "c:p of ": 10287,
  "c:tles": 10288,
  "c:me, ": 10289,
  "c:itiv": 10290,
  "c:s lo": 10291,
  "c:rdina": 10292,
  "c:i-": 10293,
  "c:g de": 10294,
  "c:nals": 10295,
  "w:device_that": 10296,
  "c:n's ": 10297,
  "c:e an ": 10298,
  "c: sci": 10299,
  "c:sion.": 10300,
  "c:ed se": 10301,
  "c:prepa": 10302,
  "c:repar": 10303,
  "c:harp": 10304,
  "c:emat": 10305,
  "c:t int": 10306,
  "c:s se": 10307,
  "c: thou": 10308,
  "c:mech": 10309,
  "c:hani": 10310,
  "c:mecha": 10311,
  "c:echan": 10312,
  "c:chani": 10313,
  "c: dish": 10314,
  "c:it t": 10315,
  "c: les": 10316,
  "c: less": 10317,
  "c:ive p": 10318,
  "c:by m": 10319,
  "c:tchi": 10320,
  "c:tchin": 10321,
  "c:oast": 10322,
  "c: her": 10323,
  "c:l ob": 10324,
  "c:l obj": 10325,
  "c:ird ": 10326,
  "c:d le": 10327,
  "c:ent b": 10328,
  "c:<ai": 10329,
  "c:feels": 10330,
  "c:l ca": 10331,
  "c:e tim": 10332,
  "c:lism": 10333,
  "c:m tha": 10334,
  "c:ng wh": 10335,
  "c: obse": 10336,
  "c:ay.>": 10337,
  "c:edin": 10338,
  "c:eding": 10339,
  "c:s, u": 10340,
  "c:reach": 10341,
  "c:ve, ": 10342,
  "w:power": 10343,
  "c:ogn": 10344,
  "c:cogn": 10345,
  "c:ogni": 10346,
  "c:cogni": 10347,
  "c:gh w": 10348,
  "c:stn": 10349,
  "c: sd ": 10350,
  "c:senti": 10351,
  "c:n ear": 10352,
  "c:me un": 10353,
  "w:studios_and": 10354,
  "w:includes_both_unlim8ted": 10355,
  "w:unlim8ted_studios_and": 10356,
  "c: ran": 10357,
  "c:t wor": 10358,
  "c:ra ": 10359,
  "c:tl ": 10360,
  "c:, mov": 10361,
  "c:dogs ": 10362,
  "w:dogs": 10363,
  "c:iatio": 10364,
  "c:-li": 10365,
  "c:ebr": 10366,
  "c: scie": 10367,
  "c:uces ": 10368,
  "c:hip ": 10369,
  "c: brow": 10370,
  "c:bles": 10371,
  "c:rds,": 10372,
  "c:rds, ": 10373,
  "c: edi": 10374,
  "c:a mi": 10375,
  "c:gai": 10376,
  "c:gain": 10377,
  "c:trc": 10378,
  "c:lds ": 10379,
  "c:ugg": 10380,
  "c:curre": 10381,
  "c:urren": 10382,
  "c:andl": 10383,
  "c:ory.": 10384,
  "c:ods.": 10385,
  "c: by m": 10386,
  "c:a a": 10387,
  "c:h mo": 10388,
  "c:fects": 10389,
  "c:oom": 10390,
  "c: prop": 10391,
  "c:ve b": 10392,
  "w:force": 10393,
  "c:ork.": 10394,
  "c:ch s": 10395,
  "c:arks ": 10396,
  "c:zes": 10397,
  "c: emph": 10398,
  "c:ia ": 10399,
  "c:, sa": 10400,
  "c:esh": 10401,
  "c:eedi": 10402,
  "c:em to": 10403,
  "c:eedin": 10404,
  "c:mr": 10405,
  "c:<be": 10406,
  "c:d mai": 10407,
  "c:olit": 10408,
  "c:l ro": 10409,
  "c:ritt": 10410,
  "w:or_alternate": 10411,
  "w:alternate_name": 10412,
  "c:yday ": 10413,
  "c:aped": 10414,
  "c:ergy,": 10415,
  "w:energy,": 10416,
  "c:on di": 10417,
  "c:sfe": 10418,
  "c:nsfe": 10419,
  "c:sfer": 10420,
  "c:ansfe": 10421,
  "c:nsfer": 10422,
  "c:shel": 10423,
  "c:d can": 10424,
  "c:mari": 10425,
  "c:woo": 10426,
  "c:bodi": 10427,
  "c:o is": 10428,
  "c:i i": 10429,
  "c:a ha": 10430,
  "c:ryi": 10431,
  "c:ryin": 10432,
  "c:rying": 10433,
  "c: fru": 10434,
  "c:a k": 10435,
  "c:reng": 10436,
  "c:stren": 10437,
  "c:treng": 10438,
  "c:rengt": 10439,
  "c:tart": 10440,
  "c:ence,": 10441,
  "c:e too": 10442,
  "c:ons t": 10443,
  "c:gy-": 10444,
  "c: it a": 10445,
  "w:audio": 10446,
  "c:t se": 10447,
  "c:ools ": 10448,
  "w:action": 10449,
  "c:stl": 10450,
  "c:orien": 10451,
  "c: own": 10452,
  "c:d ea": 10453,
  "w:known_for_their": 10454,
  "c:ddi": 10455,
  "c:dm": 10456,
  "c:work.": 10457,
  "c: mp": 10458,
  "c:e el": 10459,
  "c: slee": 10460,
  "c:makes": 10461,
  "w:makes": 10462,
  "c:her i": 10463,
  "c:ge t": 10464,
  "c:in r": 10465,
  "c:le e": 10466,
  "c:math": 10467,
  "c:ted e": 10468,
  "c:machi": 10469,
  "w:productions.": 10470,
  "w:the_older": 10471,
  "w:older_or": 10472,
  "w:studio_productions.": 10473,
  "w:studios_and_the": 10474,
  "w:older_or_alternate": 10475,
  "w:unlim8ted_studio_productions.": 10476,
  "c:ark ": 10477,
  "c:o exp": 10478,
  "c:lvi": 10479,
  "c:lvin": 10480,
  "c:gular": 10481,
  "c:liza": 10482,
  "c:agn": 10483,
  "c:iles": 10484,
  "c: amou": 10485,
  "c:amoun": 10486,
  "c:ne of": 10487,
  "c:itor": 10488,
  "w:ecosystem": 10489,
  "c:gnals": 10490,
  "c:es bi": 10491,
  "c:he di": 10492,
  "c:senta": 10493,
  "c:ct f": 10494,
  "c:ngr": 10495,
  "c:han o": 10496,
  "w:is_one": 10497,
  "c: call": 10498,
  "c:ll.": 10499,
  "c:rl ": 10500,
  "c:und t": 10501,
  "c: my": 10502,
  "c:inate": 10503,
  "c: oper": 10504,
  "c: tow": 10505,
  "c:oar": 10506,
  "c:t sho": 10507,
  "c:itch ": 10508,
  "w:health": 10509,
  "c: slow": 10510,
  "c:ravi": 10511,
  "c:stinc": 10512,
  "c:le th": 10513,
  "c:ry a": 10514,
  "c: meal": 10515,
  "c:, sc": 10516,
  "c:y sh": 10517,
  "c:tone": 10518,
  "c:ls ar": 10519,
  "w:a_meatball": 10520,
  "c:d whe": 10521,
  "c: gu": 10522,
  "w:made_of": 10523,
  "c:zing": 10524,
  "w:land": 10525,
  "c:nsis": 10526,
  "c:ntry ": 10527,
  "c:, ins": 10528,
  "c:itten": 10529,
  "w:name_unlim8ted": 10530,
  "w:and_the_older": 10531,
  "w:the_older_or": 10532,
  "w:or_alternate_name": 10533,
  "w:alternate_name_unlim8ted": 10534,
  "w:name_unlim8ted_studio": 10535,
  "c:th>": 10536,
  "c: a gr": 10537,
  "c:itive": 10538,
  "c:haped": 10539,
  "c:e ove": 10540,
  "c:en.": 10541,
  "c:can r": 10542,
  "c: woo": 10543,
  "c:ship ": 10544,
  "w:s_n": 10545,
  "c:exe": 10546,
  "c:bak": 10547,
  "c:ld.": 10548,
  "c:t la": 10549,
  "c: lat": 10550,
  "c:arro": 10551,
  "c: prep": 10552,
  "c: spre": 10553,
  "c:yea": 10554,
  "c:hen i": 10555,
  "c:l use": 10556,
  "w:mammal": 10557,
  "c:evo": 10558,
  "c:a sho": 10559,
  "c:ngine": 10560,
  "c:, sta": 10561,
  "c:aster": 10562,
  "w:protect": 10563,
  "c:eas s": 10564,
  "w:competition,_and": 10565,
  "c:-bas": 10566,
  "c:-base": 10567,
  "c:d mov": 10568,
  "c:set o": 10569,
  "c:wer i": 10570,
  "c:r res": 10571,
  "c:e obj": 10572,
  "c:your": 10573,
  "c:r ne": 10574,
  "c:fam": 10575,
  "c:bus": 10576,
  "c:oute": 10577,
  "c:, wor": 10578,
  "c:ll,": 10579,
  "c:van": 10580,
  "c:s vi": 10581,
  "w:water.": 10582,
  "c:ggs ": 10583,
  "c:nt r": 10584,
  "c:ace a": 10585,
  "c:ges o": 10586,
  "c:uesti": 10587,
  "c:nste": 10588,
  "c:effi": 10589,
  "c:effic": 10590,
  "c:s, bu": 10591,
  "w:way_to": 10592,
  "c:icr": 10593,
  "c:micr": 10594,
  "c:inn": 10595,
  "c:c co": 10596,
  "c:r sc": 10597,
  "c:bon ": 10598,
  "c:rbon ": 10599,
  "w:carbon": 10600,
  "c:r cha": 10601,
  "c:oes ": 10602,
  "c:home": 10603,
  "c:bodie": 10604,
  "c:ms an": 10605,
  "c:no ": 10606,
  "c:onge": 10607,
  "c:h wh": 10608,
  "c:re no": 10609,
  "c:nger ": 10610,
  "c:mmer": 10611,
  "c:atf": 10612,
  "c:latf": 10613,
  "c:atfo": 10614,
  "c:platf": 10615,
  "c:latfo": 10616,
  "c:atfor": 10617,
  "c:tform": 10618,
  "c:ta,": 10619,
  "c:ta, ": 10620,
  "c:ocal ": 10621,
  "c: late": 10622,
  "w:storytelling": 10623,
  "c:untry": 10624,
  "c:p>": 10625,
  "c:xis": 10626,
  "c:e gam": 10627,
  "c:i m": 10628,
  "c:en d": 10629,
  "c:lag": 10630,
  "c:mass": 10631,
  "c:y-i": 10632,
  "c:ogy-": 10633,
  "c:gy-i": 10634,
  "c:y-in": 10635,
  "c:logy-": 10636,
  "c:ogy-i": 10637,
  "c:gy-in": 10638,
  "c:y-ins": 10639,
  "w:biology-inspired": 10640,
  "c:e dis": 10641,
  "c: bou": 10642,
  "w:less": 10643,
  "c:ks ar": 10644,
  "c:ver i": 10645,
  "c: rive": 10646,
  "c:ds on": 10647,
  "c:ior ": 10648,
  "c:et of": 10649,
  "c:avit": 10650,
  "c:nden": 10651,
  "c:de b": 10652,
  "c:of g": 10653,
  "c: of g": 10654,
  "c:, sto": 10655,
  "c:ll, ": 10656,
  "c:swer ": 10657,
  "w:answer": 10658,
  "c:e sur": 10659,
  "c:urs": 10660,
  "c:at b": 10661,
  "c:, be": 10662,
  "c:cod": 10663,
  "c:t by": 10664,
  "c:te p": 10665,
  "c:t by ": 10666,
  "c:ety ": 10667,
  "c:ds, a": 10668,
  "c:e oft": 10669,
  "c:er v": 10670,
  "c:er fo": 10671,
  "c:t whe": 10672,
  "c:ing g": 10673,
  "c: prob": 10674,
  "c:tice ": 10675,
  "c: on i": 10676,
  "c:in so": 10677,
  "c:t pe": 10678,
  "c:cs s": 10679,
  "c:s pre": 10680,
  "c:ll p": 10681,
  "c:l it": 10682,
  "c:n by": 10683,
  "w:broad": 10684,
  "c:ms, s": 10685,
  "c: swi": 10686,
  "c:olvi": 10687,
  "c:olvin": 10688,
  "c:lving": 10689,
  "c:f co": 10690,
  "c:lizat": 10691,
  "c:oon ": 10692,
  "c:he so": 10693,
  "c:es n": 10694,
  "c: laye": 10695,
  "c:hai": 10696,
  "c:lity.": 10697,
  "c:n la": 10698,
  "w:based": 10699,
  "c:n ap": 10700,
  "c:ps t": 10701,
  "c:reme": 10702,
  "c:rt.>": 10703,
  "c:ove a": 10704,
  "c:shir": 10705,
  "c:hirt": 10706,
  "c:shirt": 10707,
  "c:gth ": 10708,
  "c:ngth ": 10709,
  "c:or li": 10710,
  "c:start": 10711,
  "c:d ne": 10712,
  "c:ors.": 10713,
  "c:sion,": 10714,
  "c: wth ": 10715,
  "c:ck,": 10716,
  "c:spect": 10717,
  "c:flat": 10718,
  "c:mmal ": 10719,
  "c:e ev": 10720,
  "c:oney": 10721,
  "c:ht s": 10722,
  "c:gs, a": 10723,
  "c:rtat": 10724,
  "c:ortat": 10725,
  "c:rtati": 10726,
  "c:, fa": 10727,
  "c:onfl": 10728,
  "c:malle": 10729,
  "c:llu": 10730,
  "c:loa": 10731,
  "c:ch is": 10732,
  "w:depending": 10733,
  "c:d phy": 10734,
  "c:w m": 10735,
  "c:sele": 10736,
  "c:ugh w": 10737,
  "c: mac": 10738,
  "c:writt": 10739,
  "c:ritte": 10740,
  "c:r bod": 10741,
  "c:kly": 10742,
  "c:y pa": 10743,
  "c:ests ": 10744,
  "w:organized": 10745,
  "c:ic co": 10746,
  "c:magn": 10747,
  "c:re h": 10748,
  "c:ves,": 10749,
  "c:ves, ": 10750,
  "c:o is ": 10751,
  "c:tars ": 10752,
  "c: s n ": 10753,
  "c:l, or": 10754,
  "c:rt a": 10755,
  "c:asks": 10756,
  "c:ata,": 10757,
  "c:ata, ": 10758,
  "c: divi": 10759,
  "c:<con": 10760,
  "c:sted ": 10761,
  "c:gue": 10762,
  "c: del": 10763,
  "c:ly h": 10764,
  "c: lab": 10765,
  "c: seas": 10766,
  "c:m s ": 10767,
  "c: mec": 10768,
  "c: mech": 10769,
  "c:d at": 10770,
  "c:ega": 10771,
  "c:is n": 10772,
  "w:explores_biology-inspired": 10773,
  "w:biology-inspired_ideas": 10774,
  "w:ideas_such": 10775,
  "w:as_adaptation,": 10776,
  "w:adaptation,_survival,": 10777,
  "w:survival,_competition,": 10778,
  "w:and_artificial": 10779,
  "w:artificial_life.": 10780,
  "w:that_explores_biology-inspired": 10781,
  "w:explores_biology-inspired_ideas": 10782,
  "w:biology-inspired_ideas_such": 10783,
  "w:ideas_such_as": 10784,
  "w:such_as_adaptation,": 10785,
  "w:as_adaptation,_survival,": 10786,
  "w:adaptation,_survival,_competition,": 10787,
  "w:survival,_competition,_and": 10788,
  "w:competition,_and_artificial": 10789,
  "w:and_artificial_life.": 10790,
  "c:sm i": 10791,
  "c:al ob": 10792,
  "c: a su": 10793,
  "c:uct ": 10794,
  "c:rust": 10795,
  "c:mom": 10796,
  "c:mome": 10797,
  "c:ollo": 10798,
  "w:work,": 10799,
  "c:occ": 10800,
  "c:istic": 10801,
  "c:niza": 10802,
  "c:then ": 10803,
  "w:depending_on": 10804,
  "c:dy f": 10805,
  "c:tal i": 10806,
  "c: city": 10807,
  "c:he li": 10808,
  "c:ar.": 10809,
  "c:rnal": 10810,
  "c:cated": 10811,
  "c:<bir": 10812,
  "c:<bird": 10813,
  "c:selec": 10814,
  "c:ecog": 10815,
  "c:recog": 10816,
  "c:ecogn": 10817,
  "w:state": 10818,
  "c:eade": 10819,
  "c:n by ": 10820,
  "c:up of": 10821,
  "c: ant": 10822,
  "c:aits": 10823,
  "c:raits": 10824,
  "c:of co": 10825,
  "c:doma": 10826,
  "c:omai": 10827,
  "c:domai": 10828,
  "c:omain": 10829,
  "c:se c": 10830,
  "c: shel": 10831,
  "c:heav": 10832,
  "c:ng de": 10833,
  "c:gy a": 10834,
  "c:iali": 10835,
  "c: rg": 10836,
  "c:gns": 10837,
  "c: fast": 10838,
  "c: qual": 10839,
  "c:l me": 10840,
  "c:ns of": 10841,
  "c: bak": 10842,
  "c:t bo": 10843,
  "c:om o": 10844,
  "c:e num": 10845,
  "w:is_the_way": 10846,
  "c: frui": 10847,
  "c:emati": 10848,
  "c:en l": 10849,
  "c:ask ": 10850,
  "c:edie": 10851,
  "w:the_ability_to": 10852,
  "c:ndle": 10853,
  "c: is n": 10854,
  "c:s ti": 10855,
  "c: boun": 10856,
  "c:ck, ": 10857,
  "c:ing>": 10858,
  "c:by c": 10859,
  "c: by c": 10860,
  "c:uced ": 10861,
  "c:d mu": 10862,
  "c: fle": 10863,
  "c:d tha": 10864,
  "c:use a": 10865,
  "c:grav": 10866,
  "c:t are": 10867,
  "c:e lar": 10868,
  "c:ngs a": 10869,
  "c:size ": 10870,
  "c:he fo": 10871,
  "w:and_how": 10872,
  "c:ct m": 10873,
  "c:stant": 10874,
  "c:ollow": 10875,
  "w:m": 10876,
  "c:e ho": 10877,
  "c:brd": 10878,
  "c: awa": 10879,
  "c:ials ": 10880,
  "c:reci": 10881,
  "c:tv": 10882,
  "c:ucts": 10883,
  "c: a na": 10884,
  "c:rhy": 10885,
  "c:rder ": 10886,
  "c:pid": 10887,
  "c:ters,": 10888,
  "c: mach": 10889,
  "c:-re": 10890,
  "c:eas,": 10891,
  "c:eas, ": 10892,
  "c:overa": 10893,
  "c:tent ": 10894,
  "c:divid": 10895,
  "c:als t": 10896,
  "c:te.>": 10897,
  "c:reli": 10898,
  "c:a mov": 10899,
  "c: dog": 10900,
  "c:site ": 10901,
  "c:reed": 10902,
  "c:<po": 10903,
  "w:a_device_that": 10904,
  "c:ces t": 10905,
  "c:fur": 10906,
  "c:nag": 10907,
  "c:y tr": 10908,
  "c: vol": 10909,
  "c:ory,": 10910,
  "c:ugh s": 10911,
  "c:ory, ": 10912,
  "w:if": 10913,
  "c:data,": 10914,
  "w:data,": 10915,
  "c:onic ": 10916,
  "c:netw": 10917,
  "c:etwo": 10918,
  "c:netwo": 10919,
  "c:etwor": 10920,
  "c:fs": 10921,
  "c: tel": 10922,
  "c:e ene": 10923,
  "c:at un": 10924,
  "c:f ea": 10925,
  "c:evol": 10926,
  "c:volu": 10927,
  "w:i_can": 10928,
  "c: t>": 10929,
  "c:larit": 10930,
  "c:rve ": 10931,
  "c:t pla": 10932,
  "c:s a h": 10933,
  "c:xt,": 10934,
  "c:xt, ": 10935,
  "c:arat": 10936,
  "c:alize": 10937,
  "w:systems.": 10938,
  "c:in ai": 10939,
  "c:sati": 10940,
  "c:fly ": 10941,
  "c:ly p": 10942,
  "c:sch": 10943,
  "c:p.": 10944,
  "c:sent ": 10945,
  "c: a va": 10946,
  "c:s, de": 10947,
  "c: nc": 10948,
  "c:t cre": 10949,
  "c:away": 10950,
  "c:ducts": 10951,
  "c:a boo": 10952,
  "c:w,": 10953,
  "c:w, ": 10954,
  "c:d wor": 10955,
  "c: orde": 10956,
  "c:polit": 10957,
  "c:oliti": 10958,
  "c:ones,": 10959,
  "c:onsis": 10960,
  "c:nsist": 10961,
  "c:ne.>": 10962,
  "c: eati": 10963,
  "c:bs ": 10964,
  "c:es re": 10965,
  "c:ble.": 10966,
  "c:nd ch": 10967,
  "c: remo": 10968,
  "c:ogy i": 10969,
  "c:cker ": 10970,
  "c:rming": 10971,
[...]
